//Numpy array shape [784, 12]
//Min -0.081237792969
//Max 0.081848144531
//Number of zeros 1

#ifndef W2_H_
#define W2_H_

#ifndef __SYNTHESIS__
dense_weight_t w2[9408];
#else
dense_weight_t w2[9408] = {-0.04772949218750000, 0.02258300781250000, -0.02069091796875000, 0.03356933593750000, 0.04931640625000000, 0.03289794921875000, -0.02685546875000000, -0.02821350097656250, -0.04452514648437500, 0.03302001953125000, 0.03192138671875000, 0.03759765625000000, 0.01550292968750000, 0.04022216796875000, -0.00088500976562500, -0.02030944824218750, 0.04400634765625000, 0.03631591796875000, 0.03179931640625000, -0.01589965820312500, 0.00177001953125000, 0.00799560546875000, -0.03027343750000000, 0.00625610351562500, -0.02528381347656250, 0.02783203125000000, -0.04714965820312500, -0.02343750000000000, -0.01171875000000000, -0.04919433593750000, 0.00967407226562500, 0.04168701171875000, -0.01251220703125000, 0.04785156250000000, 0.00839233398437500, 0.03906250000000000, 0.00464248657226562, 0.01354217529296875, -0.04684448242187500, 0.04055786132812500, -0.03323364257812500, 0.04428100585937500, -0.00139141082763672, 0.01568603515625000, 0.01101684570312500, 0.01455688476562500, -0.03204345703125000, 0.01843261718750000, 0.05001831054687500, 0.00994873046875000, -0.04882812500000000, -0.02264404296875000, -0.00186157226562500, -0.04656982421875000, 0.04376220703125000, 0.02355957031250000, -0.04275512695312500, -0.01757812500000000, -0.00332641601562500, -0.03515625000000000, -0.02186584472656250, -0.00469970703125000, -0.03622436523437500, -0.01258087158203125, -0.00039339065551758, 0.00600051879882812, -0.02328491210937500, -0.04171752929687500, -0.00255012512207031, 0.03656005859375000, -0.05166625976562500, -0.02221679687500000, 0.00393676757812500, -0.03936767578125000, -0.03866577148437500, -0.02577209472656250, -0.05313110351562500, 0.01852416992187500, -0.03125000000000000, -0.02821350097656250, -0.01214599609375000, 0.02278137207031250, -0.04772949218750000, 0.02014160156250000, 0.02099609375000000, 0.03210449218750000, -0.04949951171875000, 0.04116821289062500, 0.02902221679687500, -0.00807952880859375, 0.03890991210937500, 0.00130462646484375, -0.02345275878906250, -0.04763793945312500, -0.01062774658203125, -0.04125976562500000, -0.03665161132812500, -0.01597595214843750, -0.00231742858886719, -0.00691604614257812, -0.02960205078125000, -0.06198120117187500, -0.03524780273437500, -0.06198120117187500, -0.06793212890625000, -0.03759765625000000, 0.00274848937988281, -0.04296875000000000, -0.00238037109375000, -0.04095458984375000, 0.00621032714843750, -0.00683593750000000, 0.00213623046875000, -0.01580810546875000, -0.03866577148437500, 0.00095510482788086, 0.00839996337890625, -0.00424575805664062, -0.04858398437500000, -0.05410766601562500, -0.05282592773437500, 0.02941894531250000, -0.01885986328125000, -0.03005981445312500, -0.00697708129882812, -0.02081298828125000, -0.03686523437500000, 0.02148437500000000, -0.02105712890625000, -0.02540588378906250, 0.00693511962890625, -0.02964782714843750, -0.03723144531250000, -0.06347656250000000, -0.01710510253906250, -0.03982543945312500, -0.01980590820312500, 0.02392578125000000, -0.00027585029602051, 0.04177856445312500, -0.01718139648437500, 0.00106811523437500, 0.02050781250000000, -0.02832031250000000, 0.01479339599609375, -0.03799438476562500, -0.03869628906250000, 0.03488159179687500, 0.02485656738281250, 0.00317382812500000, -0.04312133789062500, 0.03991699218750000, -0.00186347961425781, 0.01111602783203125, 0.01290893554687500, 0.04895019531250000, -0.00226974487304688, -0.00109386444091797, -0.02159118652343750, 0.00308609008789062, -0.02261352539062500, -0.02835083007812500, -0.05020141601562500, 0.02517700195312500, -0.02476501464843750, 0.03994750976562500, -0.02700805664062500, -0.04974365234375000, 0.01818847656250000, 0.02313232421875000, 0.00576019287109375, 0.01467895507812500, -0.02758789062500000, -0.04064941406250000, -0.03408813476562500, -0.01770019531250000, -0.04861450195312500, -0.00974273681640625, -0.00605010986328125, -0.01181030273437500, -0.01733398437500000, 0.01673889160156250, 0.00572204589843750, -0.02874755859375000, 0.01705932617187500, 0.03894042968750000, -0.01112365722656250, -0.02291870117187500, 0.03417968750000000, -0.00766372680664062, -0.00505065917968750, 0.00055265426635742, -0.00125885009765625, 0.01229858398437500, 0.04919433593750000, -0.02644348144531250, 0.04559326171875000, -0.04895019531250000, 0.03056335449218750, 0.01678466796875000, -0.03674316406250000, -0.03396606445312500, 0.00278663635253906, 0.00968933105468750, -0.06179809570312500, -0.01741027832031250, -0.01445770263671875, 0.02239990234375000, 0.01643371582031250, -0.02696228027343750, 0.03939819335937500, 0.00518798828125000, 0.03634643554687500, 0.02241516113281250, -0.01022338867187500, 0.02746582031250000, 0.00820159912109375, 0.01666259765625000, 0.03634643554687500, 0.00952911376953125, -0.00021338462829590, -0.02175903320312500, -0.01409912109375000, -0.01329040527343750, 0.01782226562500000, -0.03253173828125000, 0.02198791503906250, 0.04275512695312500, 0.00911712646484375, -0.06106567382812500, -0.04220581054687500, 0.00849914550781250, 0.01847839355468750, -0.00968933105468750, -0.00249099731445312, -0.00601196289062500, -0.00687408447265625, 0.00687026977539062, 0.01640319824218750, 0.03692626953125000, 0.02122497558593750, 0.03445434570312500, 0.06188964843750000, 0.01943969726562500, 0.03329467773437500, -0.01392364501953125, 0.01512145996093750, 0.01263427734375000, 0.03381347656250000, 0.00620269775390625, 0.01042938232421875, -0.03198242187500000, 0.00811767578125000, 0.01055145263671875, 0.01676940917968750, -0.03344726562500000, -0.05404663085937500, 0.01010894775390625, -0.02807617187500000, -0.04574584960937500, -0.02432250976562500, -0.03201293945312500, -0.02458190917968750, -0.03195190429687500, 0.00038218498229980, -0.00131416320800781, 0.02310180664062500, -0.00267791748046875, -0.01814270019531250, 0.04724121093750000, 0.02493286132812500, 0.01502990722656250, 0.03808593750000000, 0.01730346679687500, -0.00135231018066406, 0.00715637207031250, 0.04098510742187500, 0.04296875000000000, -0.03646850585937500, -0.01529693603515625, -0.02606201171875000, -0.01549530029296875, 0.03002929687500000, -0.03570556640625000, -0.05899047851562500, 0.01687622070312500, -0.01197814941406250, -0.01873779296875000, -0.02229309082031250, -0.02915954589843750, 0.02919006347656250, -0.01516723632812500, -0.03683471679687500, -0.03041076660156250, 0.00285911560058594, -0.00758743286132812, 0.03314208984375000, 0.06262207031250000, 0.06079101562500000, 0.02821350097656250, 0.03506469726562500, 0.01968383789062500, 0.02484130859375000, 0.02284240722656250, 0.03665161132812500, 0.05914306640625000, 0.03320312500000000, 0.04312133789062500, 0.01330566406250000, -0.02062988281250000, 0.02850341796875000, 0.00772094726562500, -0.01018524169921875, -0.00630950927734375, -0.00702285766601562, 0.00635528564453125, -0.01140594482421875, 0.01406097412109375, 0.01104736328125000, 0.00266075134277344, 0.00975799560546875, 0.02467346191406250, 0.00373268127441406, -0.04760742187500000, -0.04779052734375000, -0.03567504882812500, -0.02708435058593750, 0.03234863281250000, 0.03631591796875000, -0.00382995605468750, 0.03149414062500000, 0.02224731445312500, 0.00146579742431641, -0.01057434082031250, -0.01100158691406250, 0.02021789550781250, -0.00009155273437500, -0.02459716796875000, -0.00342178344726562, 0.00546646118164062, -0.02445983886718750, -0.00437927246093750, 0.01626586914062500, 0.01066589355468750, -0.02162170410156250, 0.00332069396972656, -0.01760864257812500, -0.01371765136718750, 0.01101684570312500, -0.04217529296875000, -0.04220581054687500, -0.04150390625000000, -0.06234741210937500, -0.06335449218750000, 0.01722717285156250, -0.02824401855468750, -0.03457641601562500, 0.01467895507812500, -0.04351806640625000, 0.01374816894531250, -0.03125000000000000, -0.03247070312500000, 0.01927185058593750, -0.00443649291992188, -0.01132202148437500, -0.03884887695312500, -0.05111694335937500, -0.00784301757812500, 0.00615310668945312, 0.03665161132812500, 0.05862426757812500, -0.01007843017578125, 0.03335571289062500, -0.01409912109375000, 0.02810668945312500, 0.04989624023437500, 0.00104427337646484, 0.02697753906250000, -0.05850219726562500, -0.06256103515625000, -0.06286621093750000, -0.03555297851562500, -0.05368041992187500, -0.03683471679687500, 0.02429199218750000, -0.02799987792968750, 0.01375579833984375, 0.01009368896484375, -0.02868652343750000, -0.01931762695312500, -0.00914764404296875, 0.04769897460937500, -0.03114318847656250, -0.04998779296875000, -0.04437255859375000, -0.02539062500000000, -0.01574707031250000, -0.03536987304687500, -0.01562500000000000, 0.01733398437500000, 0.03921508789062500, 0.06262207031250000, 0.04772949218750000, -0.01085662841796875, 0.02056884765625000, 0.02597045898437500, -0.03970336914062500, -0.03588867187500000, -0.03071594238281250, -0.04290771484375000, -0.00210571289062500, -0.03250122070312500, 0.00160884857177734, 0.00440979003906250, -0.02862548828125000, 0.00421524047851562, 0.01553344726562500, -0.01528167724609375, -0.00087642669677734, 0.04931640625000000, -0.00439453125000000, 0.04132080078125000, -0.04626464843750000, -0.03579711914062500, 0.01864624023437500, 0.03942871093750000, -0.00180244445800781, 0.02424621582031250, 0.00597381591796875, 0.00833892822265625, -0.00703048706054688, 0.02061462402343750, -0.03210449218750000, -0.05178833007812500, -0.04937744140625000, -0.03747558593750000, -0.03019714355468750, -0.04855346679687500, -0.01080322265625000, 0.03256225585937500, -0.02146911621093750, 0.01589965820312500, 0.03341674804687500, 0.03320312500000000, 0.03024291992187500, -0.03359985351562500, -0.00482940673828125, -0.02130126953125000, -0.02947998046875000, -0.02011108398437500, -0.05197143554687500, -0.04272460937500000, -0.03128051757812500, 0.02029418945312500, 0.05398559570312500, 0.02668762207031250, 0.03628540039062500, 0.00315093994140625, 0.01728820800781250, 0.01276397705078125, -0.06216430664062500, -0.02624511718750000, -0.05847167968750000, -0.03439331054687500, -0.02114868164062500, 0.01611328125000000, -0.01719665527343750, -0.01374053955078125, -0.01438903808593750, 0.01387023925781250, -0.00852966308593750, -0.00179576873779297, -0.03244018554687500, -0.01710510253906250, -0.03137207031250000, -0.04031372070312500, 0.02734375000000000, 0.00527954101562500, 0.02355957031250000, -0.01559448242187500, -0.00994873046875000, -0.00624847412109375, 0.03109741210937500, -0.01712036132812500, -0.00321006774902344, -0.00125598907470703, -0.02093505859375000, -0.03720092773437500, -0.03628540039062500, -0.03402709960937500, -0.00753021240234375, -0.02235412597656250, -0.01159667968750000, 0.01420593261718750, 0.00933837890625000, -0.02110290527343750, -0.00112628936767578, 0.02423095703125000, -0.05392456054687500, 0.02807617187500000, 0.01131439208984375, -0.00749588012695312, 0.02334594726562500, -0.01278686523437500, -0.03405761718750000, 0.01428222656250000, 0.03080749511718750, -0.06402587890625000, 0.02456665039062500, 0.04745483398437500, 0.01966857910156250, 0.04534912109375000, -0.03649902343750000, 0.04513549804687500, 0.02372741699218750, -0.02252197265625000, 0.00152587890625000, -0.03787231445312500, -0.02613830566406250, 0.03170776367187500, -0.01245117187500000, -0.03317260742187500, 0.01684570312500000, -0.00632476806640625, 0.02711486816406250, 0.01664733886718750, 0.02221679687500000, -0.04354858398437500, 0.00241851806640625, 0.00757598876953125, -0.00353240966796875, -0.03665161132812500, -0.03552246093750000, 0.02177429199218750, -0.04528808593750000, -0.02507019042968750, -0.02894592285156250, 0.00306129455566406, -0.00708389282226562, 0.03076171875000000, 0.01130676269531250, 0.03146362304687500, 0.00710678100585938, 0.04525756835937500, 0.02532958984375000, -0.02149963378906250, -0.02606201171875000, -0.01036071777343750, 0.03182983398437500, 0.00505447387695312, -0.00037884712219238, -0.00720596313476562, -0.04565429687500000, 0.03372192382812500, 0.01064300537109375, -0.01413726806640625, -0.05941772460937500, -0.01585388183593750, -0.03512573242187500, 0.01416015625000000, 0.00576782226562500, -0.01422882080078125, -0.03741455078125000, -0.01226043701171875, 0.01244354248046875, 0.00717926025390625, 0.01483917236328125, 0.02615356445312500, 0.00990295410156250, 0.04699707031250000, 0.02130126953125000, -0.01164245605468750, 0.03738403320312500, -0.00662994384765625, -0.03076171875000000, 0.01148986816406250, -0.04129028320312500, 0.00397109985351562, -0.00655364990234375, -0.02714538574218750, 0.00796508789062500, 0.00782775878906250, 0.00832366943359375, -0.01042175292968750, -0.02268981933593750, -0.00300407409667969, 0.03530883789062500, 0.03216552734375000, 0.03497314453125000, 0.04425048828125000, -0.03439331054687500, -0.01589965820312500, 0.04650878906250000, -0.00625610351562500, 0.05459594726562500, 0.01872253417968750, -0.00365447998046875, -0.00295639038085938, -0.00649642944335938, 0.02940368652343750, -0.00485610961914062, -0.02085876464843750, 0.03176879882812500, -0.03289794921875000, -0.01347351074218750, 0.02026367187500000, 0.02278137207031250, -0.05728149414062500, 0.01858520507812500, -0.01074981689453125, 0.00932312011718750, -0.02447509765625000, -0.02050781250000000, 0.00953674316406250, -0.00849914550781250, -0.03114318847656250, 0.04235839843750000, -0.01513671875000000, 0.00237464904785156, 0.02566528320312500, -0.06384277343750000, -0.00594711303710938, -0.00643539428710938, -0.02674865722656250, -0.02458190917968750, 0.01326751708984375, 0.02699279785156250, 0.00799560546875000, 0.04779052734375000, -0.02375793457031250, 0.01620483398437500, 0.04022216796875000, -0.03007507324218750, 0.00834655761718750, -0.02549743652343750, 0.03674316406250000, 0.00883483886718750, -0.04663085937500000, -0.02360534667968750, 0.03982543945312500, 0.00465011596679688, 0.00383186340332031, -0.04064941406250000, 0.04864501953125000, 0.00292968750000000, -0.00762939453125000, -0.01953125000000000, -0.02798461914062500, -0.03573608398437500, -0.00787353515625000, 0.03573608398437500, -0.00843048095703125, -0.00894165039062500, 0.04043579101562500, 0.04376220703125000, -0.01750183105468750, 0.01716613769531250, 0.02482604980468750, -0.01226806640625000, 0.00387191772460938, -0.00095367431640625, 0.00589370727539062, -0.04489135742187500, -0.00769805908203125, -0.06469726562500000, -0.04751586914062500, -0.04458618164062500, -0.02839660644531250, -0.00956726074218750, 0.03555297851562500, 0.04510498046875000, 0.03839111328125000, -0.03094482421875000, 0.02880859375000000, 0.02037048339843750, -0.01468658447265625, -0.00564956665039062, -0.02372741699218750, -0.00803375244140625, 0.00637054443359375, -0.04095458984375000, -0.04034423828125000, -0.02870178222656250, 0.00289726257324219, 0.03756713867187500, -0.02250671386718750, -0.00736236572265625, 0.03823852539062500, -0.01344299316406250, -0.02894592285156250, -0.01924133300781250, -0.03332519531250000, -0.00078392028808594, -0.00815582275390625, 0.02075195312500000, -0.03021240234375000, 0.03347778320312500, 0.04205322265625000, -0.00186157226562500, 0.00381469726562500, 0.01403808593750000, -0.02362060546875000, -0.04306030273437500, -0.04675292968750000, 0.03753662109375000, -0.03039550781250000, -0.03518676757812500, -0.04977416992187500, -0.05752563476562500, -0.03114318847656250, -0.03848266601562500, -0.03631591796875000, -0.01574707031250000, -0.03424072265625000, -0.04180908203125000, -0.03820800781250000, -0.03927612304687500, -0.04440307617187500, -0.06365966796875000, -0.03265380859375000, -0.03414916992187500, 0.03704833984375000, 0.00375175476074219, 0.01136779785156250, -0.00296783447265625, -0.03094482421875000, 0.02362060546875000, -0.03320312500000000, 0.01428222656250000, 0.04302978515625000, 0.02362060546875000, -0.04431152343750000, 0.04873657226562500, 0.00514984130859375, -0.03720092773437500, 0.00577545166015625, -0.04150390625000000, -0.03927612304687500, -0.04138183593750000, -0.05136108398437500, -0.03985595703125000, 0.01635742187500000, -0.04745483398437500, -0.00720214843750000, -0.03363037109375000, 0.00974273681640625, -0.03631591796875000, -0.01892089843750000, -0.03195190429687500, -0.03671264648437500, 0.00008320808410645, 0.00376892089843750, 0.04644775390625000, 0.04669189453125000, -0.04724121093750000, -0.02743530273437500, -0.00811767578125000, 0.01818847656250000, -0.00283813476562500, 0.02636718750000000, 0.00497436523437500, 0.02737426757812500, 0.04199218750000000, 0.00065279006958008, -0.02197265625000000, -0.01383972167968750, -0.03405761718750000, -0.03372192382812500, 0.03262329101562500, -0.01036071777343750, -0.03140258789062500, -0.03329467773437500, 0.02067565917968750, 0.01413726806640625, -0.02807617187500000, 0.03021240234375000, -0.01097869873046875, -0.03494262695312500, -0.04626464843750000, -0.01849365234375000, -0.03808593750000000, 0.04937744140625000, -0.04403686523437500, 0.01690673828125000, -0.00283813476562500, -0.00576782226562500, -0.00946044921875000, 0.03631591796875000, -0.01522827148437500, 0.03546142578125000, 0.03009033203125000, -0.04364013671875000, -0.03955078125000000, -0.03671264648437500, 0.04022216796875000, 0.01940917968750000, -0.00064086914062500, 0.04702758789062500, 0.04324340820312500, -0.03182983398437500, -0.00518798828125000, -0.00350952148437500, -0.00039672851562500, 0.03778076171875000, 0.03161621093750000, 0.02996826171875000, -0.04187011718750000, -0.00585937500000000, 0.04479980468750000, 0.00692749023437500, -0.00567626953125000, 0.01745605468750000, 0.04132080078125000, 0.04937744140625000, -0.00323486328125000, -0.03720092773437500, -0.04235839843750000, -0.04812622070312500, -0.05136108398437500, -0.04638671875000000, 0.01980590820312500, -0.02091979980468750, 0.02413940429687500, -0.03799438476562500, 0.00998687744140625, -0.04595947265625000, 0.02931213378906250, -0.01507568359375000, -0.02285766601562500, 0.05230712890625000, 0.02497863769531250, 0.00673675537109375, 0.00720214843750000, 0.02233886718750000, -0.04843139648437500, -0.02313232421875000, -0.00537109375000000, 0.03082275390625000, 0.00057983398437500, 0.03094482421875000, -0.02001953125000000, -0.04470825195312500, -0.04870605468750000, -0.02441406250000000, -0.02519226074218750, -0.01504516601562500, -0.04336547851562500, 0.03302001953125000, -0.01460266113281250, -0.01753234863281250, -0.05227661132812500, -0.01295471191406250, -0.04959106445312500, 0.00533676147460938, -0.00512313842773438, -0.03033447265625000, -0.01608276367187500, 0.00523757934570312, -0.00504684448242188, -0.02429199218750000, -0.02848815917968750, -0.00022840499877930, 0.00139045715332031, -0.03393554687500000, 0.00020146369934082, 0.02053833007812500, -0.04199218750000000, 0.01696777343750000, 0.02197265625000000, 0.02911376953125000, 0.02996826171875000, -0.02528381347656250, -0.03939819335937500, -0.00965881347656250, 0.00545120239257812, 0.02076721191406250, -0.00925445556640625, 0.00023937225341797, 0.02082824707031250, 0.02760314941406250, 0.05468750000000000, 0.00926971435546875, 0.00569534301757812, 0.01547241210937500, 0.01461029052734375, 0.01445007324218750, -0.02738952636718750, -0.00373840332031250, -0.00394439697265625, -0.05551147460937500, -0.06567382812500000, -0.00581741333007812, -0.03579711914062500, 0.05392456054687500, -0.00567626953125000, 0.00408935546875000, -0.00546264648437500, -0.03387451171875000, -0.01736450195312500, -0.00563049316406250, -0.03201293945312500, 0.05569458007812500, 0.04928588867187500, 0.06707763671875000, 0.02481079101562500, 0.03863525390625000, 0.05575561523437500, 0.03329467773437500, 0.03680419921875000, 0.02769470214843750, 0.03936767578125000, 0.01942443847656250, 0.00559234619140625, 0.03298950195312500, 0.00811004638671875, 0.00927734375000000, -0.03038024902343750, -0.03958129882812500, -0.03442382812500000, -0.07855224609375000, 0.04846191406250000, 0.01823425292968750, 0.01083374023437500, -0.04675292968750000, -0.03582763671875000, 0.03814697265625000, 0.00285339355468750, 0.03564453125000000, -0.00835418701171875, -0.00189685821533203, 0.00662231445312500, 0.01773071289062500, 0.05651855468750000, 0.03201293945312500, 0.01097106933593750, 0.01142883300781250, 0.04364013671875000, -0.00418853759765625, 0.00172042846679688, 0.04229736328125000, -0.00576400756835938, 0.01676940917968750, -0.02163696289062500, 0.03857421875000000, -0.01406860351562500, -0.03982543945312500, -0.00855255126953125, -0.03295898437500000, -0.00142669677734375, 0.03866577148437500, -0.00281524658203125, -0.03015136718750000, -0.00079345703125000, -0.02410888671875000, 0.00491333007812500, 0.02799987792968750, 0.04086303710937500, 0.06262207031250000, 0.02424621582031250, 0.04620361328125000, -0.02616882324218750, 0.02787780761718750, 0.01824951171875000, 0.00437927246093750, 0.04556274414062500, 0.00048255920410156, 0.04861450195312500, -0.03085327148437500, 0.05383300781250000, -0.00833892822265625, 0.00033664703369141, -0.02151489257812500, -0.00330734252929688, 0.00255966186523438, -0.02561950683593750, -0.05981445312500000, -0.03335571289062500, -0.01013946533203125, 0.02882385253906250, 0.00936889648437500, 0.02886962890625000, 0.01404571533203125, 0.01410675048828125, 0.01055145263671875, 0.06414794921875000, 0.00626373291015625, 0.01300048828125000, -0.03390502929687500, 0.04479980468750000, 0.00541687011718750, 0.01258087158203125, 0.00144100189208984, -0.00584793090820312, 0.02003479003906250, 0.03527832031250000, 0.04916381835937500, -0.02566528320312500, 0.01246643066406250, 0.05468750000000000, -0.03485107421875000, 0.01116180419921875, 0.03582763671875000, -0.01482391357421875, -0.00548171997070312, -0.06671142578125000, -0.00901031494140625, -0.00940704345703125, 0.01428222656250000, -0.02215576171875000, 0.00146198272705078, -0.02301025390625000, 0.01245880126953125, 0.03280639648437500, 0.02239990234375000, 0.02845764160156250, -0.03646850585937500, 0.01567077636718750, -0.02262878417968750, 0.05181884765625000, -0.03198242187500000, 0.03988647460937500, -0.00303840637207031, 0.00201225280761719, -0.01570129394531250, 0.00629043579101562, 0.01428222656250000, -0.02322387695312500, 0.05523681640625000, -0.02613830566406250, 0.01011657714843750, 0.01241302490234375, -0.03253173828125000, -0.07543945312500000, 0.00140285491943359, -0.03781127929687500, -0.04696655273437500, -0.00992584228515625, 0.02755737304687500, 0.00124168395996094, 0.00817871093750000, 0.06433105468750000, 0.01492309570312500, 0.04904174804687500, 0.00050640106201172, 0.00577545166015625, -0.04287719726562500, -0.03134155273437500, -0.01969909667968750, -0.05505371093750000, -0.05130004882812500, 0.02955627441406250, 0.04244995117187500, 0.02319335937500000, 0.00574111938476562, 0.02706909179687500, -0.01933288574218750, 0.03146362304687500, 0.01363372802734375, -0.01838684082031250, -0.01715087890625000, -0.06286621093750000, -0.04443359375000000, -0.03298950195312500, -0.03054809570312500, -0.01663208007812500, -0.02827453613281250, 0.03762817382812500, 0.04730224609375000, -0.00392532348632812, -0.04275512695312500, -0.04257202148437500, -0.04019165039062500, -0.06250000000000000, -0.05612182617187500, -0.06652832031250000, -0.06250000000000000, -0.06201171875000000, -0.02032470703125000, -0.03775024414062500, -0.00824737548828125, 0.03726196289062500, 0.03982543945312500, -0.00674438476562500, 0.05975341796875000, -0.00846862792968750, 0.02307128906250000, 0.01925659179687500, 0.01361083984375000, -0.02848815917968750, 0.02752685546875000, -0.02630615234375000, 0.00732421875000000, -0.02255249023437500, 0.04653930664062500, -0.02932739257812500, -0.04116821289062500, -0.04336547851562500, -0.05358886718750000, -0.06268310546875000, -0.07220458984375000, -0.06408691406250000, -0.06250000000000000, -0.05404663085937500, -0.03656005859375000, -0.02966308593750000, -0.05841064453125000, -0.01976013183593750, 0.00324630737304688, -0.02241516113281250, -0.00233459472656250, 0.01194000244140625, 0.01470184326171875, -0.00044655799865723, -0.01087951660156250, -0.02313232421875000, -0.03057861328125000, -0.03527832031250000, -0.03173828125000000, -0.02055358886718750, -0.03573608398437500, -0.03036499023437500, 0.00550079345703125, 0.02514648437500000, -0.03854370117187500, -0.06353759765625000, -0.06738281250000000, -0.06835937500000000, -0.06427001953125000, -0.05960083007812500, -0.03833007812500000, -0.06030273437500000, 0.01504516601562500, -0.03204345703125000, -0.00957489013671875, -0.00969696044921875, -0.03314208984375000, 0.03918457031250000, 0.00325584411621094, -0.03010559082031250, -0.01523590087890625, -0.02461242675781250, -0.02493286132812500, -0.03417968750000000, -0.04534912109375000, -0.02389526367187500, 0.03643798828125000, -0.04931640625000000, -0.02763366699218750, -0.00048828125000000, 0.00345993041992188, -0.03857421875000000, -0.02699279785156250, -0.06274414062500000, -0.06634521484375000, -0.06341552734375000, -0.06689453125000000, -0.04183959960937500, -0.01699829101562500, -0.00458908081054688, -0.00213050842285156, -0.00783538818359375, 0.00849914550781250, 0.01757812500000000, -0.03588867187500000, -0.00230407714843750, -0.00708770751953125, 0.03875732421875000, -0.01358032226562500, -0.01491546630859375, 0.02047729492187500, -0.05786132812500000, -0.06457519531250000, -0.00972747802734375, 0.02458190917968750, -0.00948333740234375, -0.03771972656250000, 0.02862548828125000, 0.00648117065429688, 0.03778076171875000, 0.00244331359863281, -0.01450347900390625, -0.05139160156250000, -0.02351379394531250, 0.00765991210937500, 0.01264953613281250, 0.01175689697265625, -0.01655578613281250, 0.01164245605468750, -0.00732421875000000, 0.01118469238281250, -0.03588867187500000, -0.03518676757812500, -0.02664184570312500, -0.00771331787109375, -0.01777648925781250, 0.01582336425781250, -0.03756713867187500, -0.04190063476562500, -0.02026367187500000, -0.04809570312500000, -0.04644775390625000, 0.04650878906250000, 0.06219482421875000, 0.01953125000000000, 0.02850341796875000, 0.01651000976562500, 0.00707244873046875, -0.03411865234375000, 0.03298950195312500, -0.01716613769531250, 0.01686096191406250, -0.02540588378906250, 0.02299499511718750, -0.02095031738281250, 0.04333496093750000, 0.01506805419921875, 0.00384330749511719, 0.03634643554687500, -0.00016379356384277, 0.01707458496093750, 0.03640747070312500, 0.00582122802734375, -0.01737976074218750, 0.00286674499511719, 0.00531005859375000, -0.01508331298828125, 0.01549530029296875, 0.03720092773437500, 0.05462646484375000, 0.02920532226562500, 0.01370239257812500, 0.04818725585937500, 0.03692626953125000, 0.02987670898437500, 0.05578613281250000, 0.01544189453125000, 0.05212402343750000, 0.00339889526367188, 0.06106567382812500, -0.01013946533203125, 0.00132942199707031, 0.00031924247741699, -0.03744506835937500, -0.04315185546875000, -0.03857421875000000, 0.04714965820312500, -0.02066040039062500, -0.03829956054687500, -0.01082611083984375, 0.04907226562500000, -0.00803375244140625, 0.01637268066406250, 0.01230621337890625, 0.05535888671875000, 0.00046730041503906, 0.01168823242187500, -0.01524353027343750, 0.06854248046875000, 0.03488159179687500, 0.04119873046875000, 0.02587890625000000, -0.02157592773437500, 0.00070858001708984, 0.05535888671875000, 0.04647827148437500, 0.03735351562500000, 0.02001953125000000, 0.02639770507812500, -0.02198791503906250, -0.01135253906250000, 0.01989746093750000, -0.01942443847656250, -0.00230979919433594, -0.04379272460937500, 0.00361251831054688, 0.00743103027343750, -0.00217437744140625, -0.02978515625000000, 0.01817321777343750, 0.02032470703125000, -0.01378631591796875, 0.00935363769531250, -0.02207946777343750, 0.03671264648437500, 0.05621337890625000, 0.04595947265625000, 0.03970336914062500, -0.00963592529296875, 0.00204467773437500, -0.03056335449218750, -0.03546142578125000, 0.05844116210937500, 0.06329345703125000, 0.06927490234375000, -0.00142574310302734, 0.00697708129882812, -0.01208496093750000, -0.03778076171875000, -0.05816650390625000, -0.01186370849609375, 0.03323364257812500, -0.00706100463867188, 0.01800537109375000, -0.00545883178710938, 0.06182861328125000, 0.03869628906250000, -0.00188827514648438, 0.01316833496093750, 0.01345062255859375, 0.03053283691406250, 0.01093292236328125, 0.03424072265625000, 0.02912902832031250, 0.01985168457031250, 0.04095458984375000, -0.02644348144531250, -0.03454589843750000, 0.00069522857666016, -0.01549530029296875, 0.05508422851562500, 0.02468872070312500, 0.01302337646484375, -0.00356292724609375, 0.00181102752685547, -0.00078678131103516, 0.04797363281250000, 0.01663208007812500, -0.00332641601562500, -0.02844238281250000, -0.02604675292968750, -0.00177764892578125, 0.01817321777343750, 0.02690124511718750, 0.00724792480468750, 0.03350830078125000, 0.04501342773437500, -0.03359985351562500, 0.04241943359375000, 0.03234863281250000, 0.02810668945312500, 0.03228759765625000, 0.03268432617187500, 0.02293395996093750, 0.05014038085937500, -0.04296875000000000, -0.02679443359375000, -0.03460693359375000, 0.02767944335937500, 0.01600646972656250, 0.00382423400878906, 0.06640625000000000, 0.02667236328125000, 0.04656982421875000, 0.00609970092773438, -0.00126361846923828, -0.00680923461914062, -0.02151489257812500, -0.01855468750000000, 0.00986480712890625, -0.01293182373046875, 0.00187873840332031, 0.03295898437500000, 0.00309371948242188, 0.04467773437500000, 0.04611206054687500, -0.00590133666992188, -0.00933837890625000, 0.02604675292968750, -0.00375366210937500, 0.04275512695312500, 0.03866577148437500, -0.04248046875000000, -0.02499389648437500, 0.03289794921875000, -0.01449584960937500, 0.06311035156250000, 0.03338623046875000, 0.04373168945312500, 0.03555297851562500, 0.00465011596679688, -0.02210998535156250, 0.01133728027343750, -0.03074645996093750, 0.01188659667968750, -0.00193881988525391, 0.00577545166015625, -0.02500915527343750, -0.02331542968750000, 0.01365661621093750, 0.01436614990234375, -0.00395202636718750, 0.01657104492187500, -0.00880432128906250, 0.03131103515625000, 0.04010009765625000, -0.00609970092773438, 0.03125000000000000, 0.04855346679687500, 0.03854370117187500, -0.02792358398437500, 0.02685546875000000, 0.00527954101562500, 0.03137207031250000, 0.05447387695312500, 0.04916381835937500, 0.06365966796875000, -0.00705337524414062, -0.00760650634765625, -0.00115108489990234, 0.03047180175781250, -0.02461242675781250, 0.01181030273437500, -0.02021789550781250, -0.01209259033203125, 0.02140808105468750, -0.01800537109375000, -0.02398681640625000, 0.01856994628906250, 0.02236938476562500, -0.01898193359375000, 0.01436614990234375, 0.02015686035156250, -0.00980377197265625, 0.02088928222656250, 0.05029296875000000, -0.02882385253906250, -0.01704406738281250, -0.03045654296875000, -0.00311279296875000, -0.04248046875000000, -0.02394104003906250, 0.01603698730468750, -0.02587890625000000, 0.02160644531250000, -0.01495361328125000, 0.05557250976562500, 0.00630950927734375, -0.00923919677734375, 0.01281738281250000, 0.00655364990234375, -0.01221466064453125, -0.01744079589843750, -0.02384948730468750, 0.00460815429687500, -0.02420043945312500, -0.04537963867187500, 0.02941894531250000, 0.03004455566406250, 0.01172637939453125, 0.00328445434570312, 0.02929687500000000, 0.01976013183593750, 0.03628540039062500, -0.03756713867187500, 0.03088378906250000, 0.01794433593750000, -0.01239013671875000, 0.04754638671875000, -0.01785278320312500, 0.00528335571289062, 0.04867553710937500, 0.02375793457031250, 0.01664733886718750, 0.01951599121093750, -0.01876831054687500, 0.04421997070312500, 0.01007843017578125, -0.01149749755859375, 0.01750183105468750, 0.03326416015625000, 0.03784179687500000, 0.01718139648437500, -0.00571060180664062, -0.00439834594726562, -0.01710510253906250, -0.04055786132812500, -0.03176879882812500, 0.01628112792968750, -0.05273437500000000, 0.01159667968750000, -0.01687622070312500, -0.01071166992187500, 0.02813720703125000, -0.01025390625000000, 0.01599121093750000, -0.01589965820312500, 0.01788330078125000, -0.03134155273437500, 0.00088310241699219, 0.02868652343750000, 0.01759338378906250, -0.00998687744140625, 0.04867553710937500, 0.01820373535156250, 0.02981567382812500, 0.04986572265625000, -0.01220703125000000, 0.03131103515625000, 0.00422668457031250, -0.00330352783203125, -0.00344848632812500, 0.00334167480468750, -0.00272750854492188, -0.01567077636718750, -0.05169677734375000, -0.02926635742187500, -0.03890991210937500, -0.00462341308593750, 0.02729797363281250, -0.01727294921875000, 0.00115966796875000, -0.02450561523437500, -0.03436279296875000, 0.00399780273437500, 0.02038574218750000, 0.03875732421875000, -0.04736328125000000, 0.02862548828125000, -0.01313781738281250, 0.05285644531250000, 0.01246643066406250, 0.00163650512695312, -0.02687072753906250, 0.01406860351562500, -0.00879669189453125, -0.03469848632812500, -0.02156066894531250, -0.03001403808593750, -0.02680969238281250, -0.00650024414062500, -0.01178741455078125, -0.01208496093750000, 0.03921508789062500, 0.00682449340820312, -0.00578308105468750, 0.02069091796875000, 0.03125000000000000, 0.00546264648437500, 0.01580810546875000, 0.04138183593750000, 0.01132202148437500, -0.04354858398437500, -0.03796386718750000, -0.01571655273437500, 0.00918579101562500, 0.03222656250000000, -0.00546264648437500, -0.04904174804687500, 0.03942871093750000, -0.01899719238281250, 0.04196166992187500, -0.02149963378906250, 0.03146362304687500, -0.01867675781250000, 0.01406860351562500, 0.01934814453125000, 0.03988647460937500, -0.00865173339843750, -0.04754638671875000, 0.02259826660156250, 0.04617309570312500, 0.02400207519531250, -0.00831604003906250, 0.04351806640625000, -0.04061889648437500, -0.01132202148437500, -0.03662109375000000, -0.03125000000000000, 0.00048828125000000, 0.01074218750000000, 0.01446533203125000, 0.01113891601562500, 0.02313232421875000, 0.00860595703125000, -0.01345825195312500, 0.04132080078125000, 0.01916503906250000, -0.00811767578125000, -0.01933288574218750, -0.03964233398437500, 0.04223632812500000, 0.04745483398437500, -0.00595092773437500, -0.03689575195312500, -0.02674865722656250, 0.00213623046875000, -0.01251220703125000, -0.02616882324218750, 0.00790405273437500, 0.02545166015625000, 0.01104736328125000, 0.03594970703125000, 0.00595092773437500, 0.04882812500000000, -0.03105163574218750, -0.00381469726562500, -0.04608154296875000, 0.04821777343750000, -0.04257202148437500, 0.04901123046875000, 0.01940917968750000, 0.03448486328125000, -0.02539062500000000, 0.03552246093750000, -0.03393554687500000, -0.04626464843750000, -0.00416946411132812, -0.05554199218750000, 0.02804565429687500, -0.02543640136718750, -0.04150390625000000, -0.00656127929687500, -0.01065063476562500, -0.03439331054687500, -0.02401733398437500, 0.04074096679687500, -0.05078125000000000, 0.01129150390625000, -0.02590942382812500, 0.01794433593750000, -0.04696655273437500, 0.04199218750000000, 0.01892089843750000, -0.00634765625000000, 0.03936767578125000, -0.00781250000000000, 0.02819824218750000, 0.04864501953125000, -0.02877807617187500, 0.02789306640625000, 0.04244995117187500, 0.02793884277343750, -0.01672363281250000, 0.01696777343750000, -0.03088378906250000, -0.00746536254882812, -0.03292846679687500, -0.01551818847656250, -0.00892639160156250, -0.02740478515625000, 0.02705383300781250, -0.02746582031250000, 0.00935363769531250, -0.01715087890625000, -0.04244995117187500, -0.04003906250000000, 0.00143527984619141, 0.02424621582031250, 0.03161621093750000, 0.01052093505859375, 0.02978515625000000, 0.03161621093750000, -0.03894042968750000, -0.01913452148437500, -0.03771972656250000, 0.04821777343750000, 0.03082275390625000, 0.01947021484375000, 0.00567245483398438, 0.04241943359375000, -0.00642013549804688, 0.02368164062500000, 0.01676940917968750, -0.00163459777832031, -0.01510620117187500, 0.00155067443847656, -0.03111267089843750, -0.03656005859375000, 0.00825500488281250, -0.03198242187500000, -0.04559326171875000, -0.04486083984375000, -0.02543640136718750, -0.06192016601562500, -0.03933715820312500, -0.06665039062500000, -0.03610229492187500, 0.02856445312500000, 0.01239776611328125, -0.00555419921875000, -0.01982116699218750, -0.00164794921875000, 0.02709960937500000, 0.00890350341796875, 0.02476501464843750, -0.04931640625000000, -0.00154018402099609, -0.04580688476562500, -0.00171947479248047, 0.03729248046875000, 0.03952026367187500, 0.05706787109375000, -0.00208282470703125, 0.04833984375000000, 0.02157592773437500, 0.01024627685546875, -0.01251220703125000, -0.02334594726562500, -0.00190162658691406, -0.00345420837402344, -0.01989746093750000, -0.02171325683593750, -0.05688476562500000, -0.01514434814453125, -0.03085327148437500, -0.00905609130859375, 0.04025268554687500, -0.01568603515625000, -0.00976562500000000, 0.00244140625000000, 0.00348472595214844, 0.02972412109375000, -0.03143310546875000, -0.03314208984375000, -0.02101135253906250, 0.00287055969238281, 0.02674865722656250, 0.02394104003906250, 0.01053619384765625, 0.01966857910156250, 0.00946807861328125, -0.00518417358398438, 0.00721359252929688, 0.00327873229980469, 0.04577636718750000, 0.00331497192382812, -0.01821899414062500, 0.00736618041992188, -0.03308105468750000, 0.01295471191406250, 0.01541137695312500, -0.03500366210937500, -0.06427001953125000, -0.04818725585937500, 0.02592468261718750, 0.03652954101562500, 0.04156494140625000, -0.03173828125000000, -0.02983093261718750, -0.03451538085937500, 0.03967285156250000, 0.03613281250000000, 0.03326416015625000, -0.02218627929687500, -0.03973388671875000, -0.02709960937500000, -0.01928710937500000, 0.00530624389648438, 0.03485107421875000, 0.03012084960937500, -0.00186824798583984, -0.02207946777343750, -0.03787231445312500, -0.02436828613281250, -0.01718139648437500, -0.00213432312011719, 0.02734375000000000, -0.01887512207031250, -0.03961181640625000, -0.03704833984375000, -0.06222534179687500, -0.01579284667968750, 0.02061462402343750, -0.00598526000976562, 0.00225830078125000, 0.02029418945312500, -0.03729248046875000, -0.02235412597656250, -0.01794433593750000, 0.04367065429687500, -0.01389312744140625, 0.02870178222656250, 0.02226257324218750, -0.00206947326660156, 0.02255249023437500, -0.01774597167968750, 0.02769470214843750, -0.01911926269531250, -0.01782226562500000, 0.03189086914062500, 0.00721740722656250, -0.01244354248046875, 0.04776000976562500, -0.02670288085937500, -0.03613281250000000, 0.02008056640625000, 0.03720092773437500, -0.05841064453125000, -0.06365966796875000, -0.04391479492187500, -0.02749633789062500, 0.00459671020507812, 0.02120971679687500, 0.04110717773437500, -0.00085878372192383, -0.00395584106445312, 0.03497314453125000, 0.01501464843750000, -0.01187896728515625, 0.00096607208251953, 0.00044393539428711, 0.00016117095947266, 0.02565002441406250, -0.02964782714843750, 0.03335571289062500, 0.05728149414062500, 0.00523757934570312, 0.03439331054687500, 0.00272750854492188, 0.00842285156250000, -0.00519561767578125, 0.02224731445312500, -0.00412368774414062, -0.00796508789062500, -0.05160522460937500, -0.06890869140625000, -0.06481933593750000, -0.03768920898437500, -0.02331542968750000, 0.03887939453125000, -0.04479980468750000, 0.02981567382812500, 0.03512573242187500, 0.01259613037109375, 0.03649902343750000, -0.01315307617187500, 0.03680419921875000, 0.01493835449218750, 0.05560302734375000, -0.01737976074218750, 0.02320861816406250, 0.02268981933593750, -0.01701354980468750, 0.03077697753906250, 0.02241516113281250, -0.00128269195556641, 0.04394531250000000, 0.00253295898437500, 0.03013610839843750, 0.02542114257812500, -0.04064941406250000, -0.02870178222656250, -0.05117797851562500, -0.06341552734375000, -0.06536865234375000, -0.03234863281250000, -0.02262878417968750, 0.02751159667968750, 0.01770019531250000, -0.01754760742187500, 0.03643798828125000, 0.02529907226562500, -0.03244018554687500, 0.04293823242187500, 0.02911376953125000, -0.04125976562500000, -0.03451538085937500, 0.02247619628906250, -0.00315475463867188, 0.01565551757812500, -0.04244995117187500, -0.01939392089843750, 0.02636718750000000, 0.03472900390625000, 0.01782226562500000, 0.00817871093750000, -0.01213836669921875, -0.01869201660156250, 0.00627517700195312, 0.03344726562500000, -0.04986572265625000, -0.05059814453125000, -0.04571533203125000, -0.01591491699218750, -0.03530883789062500, 0.01509857177734375, 0.03442382812500000, 0.02703857421875000, -0.01815795898437500, -0.04306030273437500, -0.00936889648437500, -0.06347656250000000, -0.05368041992187500, -0.04168701171875000, -0.04354858398437500, -0.03240966796875000, -0.06317138671875000, -0.06323242187500000, -0.06359863281250000, -0.06323242187500000, -0.03643798828125000, 0.01445007324218750, -0.03381347656250000, -0.00050115585327148, 0.00397491455078125, 0.02520751953125000, -0.00502777099609375, -0.01036071777343750, -0.01797485351562500, -0.04855346679687500, -0.06433105468750000, -0.04235839843750000, -0.01560211181640625, 0.01187896728515625, 0.03939819335937500, 0.00616455078125000, 0.04589843750000000, -0.02693176269531250, -0.04885864257812500, -0.05856323242187500, -0.06829833984375000, -0.06353759765625000, -0.06726074218750000, -0.06323242187500000, -0.06439208984375000, -0.06018066406250000, -0.06329345703125000, -0.05447387695312500, -0.02912902832031250, -0.02647399902343750, 0.00247383117675781, -0.01215362548828125, -0.01963806152343750, -0.04858398437500000, 0.02925109863281250, 0.00507736206054688, -0.05062866210937500, -0.04272460937500000, -0.04885864257812500, -0.00544357299804688, 0.02851867675781250, 0.01224517822265625, -0.02069091796875000, -0.04159545898437500, 0.04687500000000000, -0.05578613281250000, -0.06085205078125000, -0.07031250000000000, -0.06866455078125000, -0.06689453125000000, -0.06512451171875000, -0.06323242187500000, -0.06213378906250000, -0.06530761718750000, -0.04080200195312500, -0.03314208984375000, 0.04754638671875000, 0.01222991943359375, -0.05273437500000000, -0.02149963378906250, -0.02713012695312500, 0.01879882812500000, -0.03738403320312500, -0.01547241210937500, -0.03173828125000000, -0.05047607421875000, 0.03662109375000000, 0.05032348632812500, 0.05834960937500000, -0.04577636718750000, -0.03289794921875000, 0.04556274414062500, -0.04135131835937500, -0.03753662109375000, -0.04116821289062500, -0.06274414062500000, -0.06524658203125000, -0.03509521484375000, -0.00840759277343750, -0.02766418457031250, -0.00600433349609375, -0.04644775390625000, -0.00184154510498047, 0.00658798217773438, 0.00619506835937500, -0.02494812011718750, 0.00910186767578125, 0.00836944580078125, 0.03402709960937500, 0.01832580566406250, 0.01289367675781250, -0.05279541015625000, -0.00089454650878906, -0.06262207031250000, -0.01811218261718750, 0.04132080078125000, 0.01724243164062500, -0.01638793945312500, -0.01669311523437500, -0.02102661132812500, -0.03387451171875000, 0.00535583496093750, -0.06042480468750000, 0.00769424438476562, 0.00007349252700806, 0.01930236816406250, 0.00388145446777344, 0.01647949218750000, 0.02761840820312500, 0.01933288574218750, 0.00440597534179688, 0.06127929687500000, 0.01699829101562500, 0.01997375488281250, -0.00741958618164062, 0.00406646728515625, -0.03732299804687500, -0.01289367675781250, -0.01275634765625000, -0.03421020507812500, -0.02575683593750000, -0.03353881835937500, 0.01470184326171875, 0.01547241210937500, 0.07580566406250000, -0.03268432617187500, -0.01443481445312500, -0.05154418945312500, -0.03137207031250000, -0.00307083129882812, 0.02217102050781250, 0.05593872070312500, 0.03674316406250000, 0.04751586914062500, -0.02835083007812500, 0.01538848876953125, 0.00753021240234375, -0.02169799804687500, 0.00395202636718750, 0.03924560546875000, 0.03314208984375000, 0.01352691650390625, 0.00400924682617188, -0.03240966796875000, 0.02812194824218750, 0.00996398925781250, -0.01910400390625000, -0.03686523437500000, -0.00079298019409180, 0.02375793457031250, 0.04541015625000000, 0.03897094726562500, 0.07916259765625000, 0.03125000000000000, -0.03076171875000000, -0.01864624023437500, -0.03128051757812500, -0.01609802246093750, 0.04284667968750000, -0.01753234863281250, -0.01517486572265625, 0.05285644531250000, -0.03448486328125000, -0.02177429199218750, 0.02462768554687500, -0.01210021972656250, 0.03176879882812500, 0.03097534179687500, 0.05987548828125000, 0.02560424804687500, 0.01287841796875000, 0.00162220001220703, -0.01467132568359375, -0.03933715820312500, 0.01165008544921875, 0.00917053222656250, 0.01551818847656250, 0.03356933593750000, 0.02413940429687500, 0.07214355468750000, 0.03564453125000000, 0.03057861328125000, 0.02703857421875000, 0.04309082031250000, -0.03363037109375000, 0.02664184570312500, 0.02430725097656250, 0.03912353515625000, 0.00167274475097656, 0.05108642578125000, 0.01333618164062500, 0.04061889648437500, -0.03253173828125000, 0.02671813964843750, 0.03140258789062500, 0.05422973632812500, 0.03540039062500000, -0.00254821777343750, -0.02919006347656250, -0.00617980957031250, 0.00772094726562500, -0.01139068603515625, -0.01370239257812500, 0.02877807617187500, 0.04162597656250000, -0.00852966308593750, 0.03009033203125000, 0.04980468750000000, 0.05728149414062500, 0.02055358886718750, -0.01367187500000000, 0.03762817382812500, -0.03793334960937500, -0.04312133789062500, 0.02526855468750000, 0.04666137695312500, 0.03509521484375000, 0.00767517089843750, -0.03244018554687500, 0.01777648925781250, -0.01146697998046875, 0.03506469726562500, -0.02256774902343750, 0.04226684570312500, 0.01870727539062500, 0.03604125976562500, -0.03921508789062500, 0.02130126953125000, -0.02018737792968750, -0.00935363769531250, 0.01062011718750000, -0.02624511718750000, 0.02743530273437500, 0.00032663345336914, 0.03561401367187500, 0.06427001953125000, 0.02032470703125000, 0.00612640380859375, -0.03350830078125000, -0.02880859375000000, 0.02262878417968750, -0.00015735626220703, 0.03890991210937500, -0.02453613281250000, -0.02011108398437500, -0.00046825408935547, 0.01812744140625000, 0.01387023925781250, -0.00831604003906250, 0.04522705078125000, -0.00223922729492188, 0.02886962890625000, -0.03372192382812500, 0.03228759765625000, 0.01500701904296875, -0.01377105712890625, -0.01889038085937500, 0.01085662841796875, -0.01651000976562500, 0.00510025024414062, 0.01427459716796875, 0.04446411132812500, 0.02137756347656250, 0.03527832031250000, -0.01492309570312500, -0.01406860351562500, -0.01580810546875000, -0.02951049804687500, -0.01033782958984375, 0.01073455810546875, 0.00779724121093750, 0.02336120605468750, 0.01259613037109375, 0.00462341308593750, 0.00666427612304688, 0.04190063476562500, 0.02189636230468750, -0.01742553710937500, 0.01748657226562500, 0.00512695312500000, -0.00308609008789062, -0.03570556640625000, -0.00480270385742188, -0.03796386718750000, 0.03170776367187500, 0.04083251953125000, -0.00365829467773438, 0.00833892822265625, 0.05218505859375000, 0.05007934570312500, -0.00460052490234375, 0.05383300781250000, 0.03854370117187500, -0.04882812500000000, -0.00283813476562500, -0.00079345703125000, 0.02569580078125000, -0.02651977539062500, 0.01985168457031250, 0.03601074218750000, 0.04605102539062500, 0.03582763671875000, 0.02543640136718750, -0.00775527954101562, -0.00155067443847656, -0.00568771362304688, -0.02308654785156250, -0.04919433593750000, 0.01157379150390625, -0.00886535644531250, 0.03475952148437500, -0.02226257324218750, 0.00375175476074219, -0.00985717773437500, 0.02046203613281250, -0.00091361999511719, -0.02224731445312500, 0.03985595703125000, 0.01393890380859375, -0.00403976440429688, -0.05679321289062500, 0.03619384765625000, -0.00128173828125000, 0.03826904296875000, -0.03311157226562500, -0.05157470703125000, -0.02836608886718750, 0.01012420654296875, 0.00069141387939453, -0.01947021484375000, -0.00391006469726562, -0.01362609863281250, -0.02088928222656250, -0.00977325439453125, -0.02572631835937500, 0.00007164478302002, -0.02740478515625000, 0.02784729003906250, -0.02883911132812500, 0.02931213378906250, -0.03045654296875000, -0.01733398437500000, 0.03784179687500000, 0.00555419921875000, 0.01667785644531250, -0.00796508789062500, -0.04095458984375000, 0.01216125488281250, 0.04138183593750000, -0.02470397949218750, -0.00177001953125000, 0.01281738281250000, -0.04254150390625000, -0.03189086914062500, 0.01869201660156250, -0.03860473632812500, 0.02113342285156250, -0.06124877929687500, 0.00788116455078125, -0.03997802734375000, -0.02879333496093750, -0.02790832519531250, -0.01017761230468750, -0.03341674804687500, -0.03411865234375000, 0.02857971191406250, -0.03314208984375000, -0.01493835449218750, -0.00331115722656250, -0.00123882293701172, -0.01443481445312500, -0.04138183593750000, 0.04010009765625000, -0.04159545898437500, 0.00549316406250000, -0.01750183105468750, 0.01515960693359375, 0.04644775390625000, 0.04040527343750000, -0.01873779296875000, -0.01229858398437500, 0.03341674804687500, 0.03808593750000000, -0.02429199218750000, -0.03631591796875000, -0.04110717773437500, -0.03906250000000000, -0.01574707031250000, -0.02095031738281250, -0.00451660156250000, 0.01211547851562500, -0.00975036621093750, 0.00861358642578125, -0.05529785156250000, -0.02604675292968750, -0.01020812988281250, -0.05960083007812500, -0.03475952148437500, -0.05523681640625000, -0.04370117187500000, -0.04666137695312500, -0.03833007812500000, -0.02346801757812500, -0.00289154052734375, -0.00324630737304688, 0.00604248046875000, 0.02569580078125000, -0.04559326171875000, 0.04919433593750000, -0.01394653320312500, -0.01663208007812500, -0.05645751953125000, 0.00381851196289062, 0.02064514160156250, -0.02500915527343750, 0.03125000000000000, 0.03390502929687500, 0.02827453613281250, 0.03558349609375000, -0.00034236907958984, 0.00604248046875000, 0.00469970703125000, 0.01985168457031250, -0.01698303222656250, -0.03350830078125000, 0.01423645019531250, -0.02497863769531250, -0.05236816406250000, -0.00335311889648438, 0.02526855468750000, -0.02479553222656250, 0.04846191406250000, -0.02450561523437500, 0.03192138671875000, 0.02178955078125000, 0.01007080078125000, 0.02496337890625000, 0.00762939453125000, -0.01831054687500000, -0.04885864257812500, -0.01014709472656250, 0.00351142883300781, -0.00539016723632812, 0.04214477539062500, -0.00548553466796875, 0.02818298339843750, 0.01338195800781250, -0.01663208007812500, 0.01025390625000000, -0.03384399414062500, 0.01618957519531250, -0.03686523437500000, -0.02543640136718750, 0.02929687500000000, 0.00146484375000000, 0.03875732421875000, -0.03738403320312500, 0.04638671875000000, 0.02838134765625000, 0.03814697265625000, 0.03649902343750000, -0.04785156250000000, -0.03259277343750000, -0.04150390625000000, -0.01904296875000000, -0.04235839843750000, -0.02703857421875000, -0.00302124023437500, -0.04989624023437500, -0.01962280273437500, 0.02526855468750000, 0.02227783203125000, -0.01971435546875000, -0.02128601074218750, -0.02072143554687500, -0.03570556640625000, -0.02301025390625000, -0.01220703125000000, -0.02381896972656250, -0.01571655273437500, 0.02209472656250000, 0.02703857421875000, 0.00479125976562500, 0.04394531250000000, 0.02087402343750000, -0.02294921875000000, 0.03717041015625000, -0.02947998046875000, -0.03204345703125000, -0.01562500000000000, -0.02020263671875000, 0.00967407226562500, 0.01034545898437500, 0.04235839843750000, -0.00350952148437500, -0.02832031250000000, 0.01748657226562500, -0.03912353515625000, 0.03155517578125000, 0.00833129882812500, 0.02990722656250000, -0.00785064697265625, 0.03125000000000000, -0.01390838623046875, -0.02586364746093750, -0.01756286621093750, 0.04788208007812500, 0.04544067382812500, 0.05133056640625000, 0.01445770263671875, 0.03372192382812500, -0.02355957031250000, 0.00065231323242188, -0.03295898437500000, -0.02470397949218750, -0.03778076171875000, 0.00048828125000000, -0.00164794921875000, 0.01501464843750000, -0.01025390625000000, 0.01647949218750000, -0.03065490722656250, 0.01834106445312500, -0.02072143554687500, -0.03979492187500000, 0.05828857421875000, 0.04675292968750000, 0.00828552246093750, 0.06137084960937500, 0.05996704101562500, 0.06475830078125000, 0.06860351562500000, 0.04980468750000000, 0.02919006347656250, 0.06268310546875000, 0.03970336914062500, 0.04473876953125000, 0.03579711914062500, 0.03335571289062500, 0.03268432617187500, 0.03302001953125000, 0.04592895507812500, 0.01204681396484375, -0.02230834960937500, 0.02642822265625000, 0.02325439453125000, -0.04452514648437500, 0.03155517578125000, -0.00292587280273438, 0.02377319335937500, 0.04260253906250000, 0.00464248657226562, 0.03399658203125000, 0.02310180664062500, 0.01296997070312500, 0.03604125976562500, 0.05749511718750000, 0.03503417968750000, 0.05477905273437500, 0.04187011718750000, 0.03836059570312500, 0.05889892578125000, 0.07318115234375000, 0.06323242187500000, 0.03900146484375000, 0.02362060546875000, 0.05117797851562500, 0.00949859619140625, 0.04675292968750000, 0.00094032287597656, 0.03536987304687500, 0.04440307617187500, -0.01593017578125000, -0.01358032226562500, 0.02050781250000000, -0.00244140625000000, 0.03009033203125000, 0.03009033203125000, 0.03411865234375000, 0.01564025878906250, 0.00251770019531250, -0.02026367187500000, -0.02120971679687500, 0.00017142295837402, -0.00911712646484375, 0.00959777832031250, 0.01305389404296875, -0.02342224121093750, 0.01492309570312500, -0.00409698486328125, 0.01255798339843750, 0.01334381103515625, -0.01242065429687500, 0.00730133056640625, -0.00676727294921875, 0.01815795898437500, -0.01583862304687500, 0.00917816162109375, -0.01762390136718750, 0.01841735839843750, -0.04077148437500000, 0.01113891601562500, 0.03485107421875000, 0.00967407226562500, -0.00253295898437500, 0.03976440429687500, 0.04043579101562500, -0.04037475585937500, -0.00387191772460938, 0.02893066406250000, 0.01433563232421875, 0.04281616210937500, 0.03228759765625000, -0.02565002441406250, -0.00294494628906250, 0.02545166015625000, -0.00343132019042969, -0.03094482421875000, -0.03097534179687500, 0.02154541015625000, -0.01107788085937500, 0.00863647460937500, -0.03375244140625000, 0.00059556961059570, 0.00162792205810547, -0.01257324218750000, -0.02433776855468750, -0.03311157226562500, -0.02114868164062500, 0.03311157226562500, 0.00762939453125000, -0.04257202148437500, -0.03753662109375000, -0.01684570312500000, 0.03582763671875000, -0.05508422851562500, -0.01806640625000000, 0.03619384765625000, -0.03524780273437500, -0.02484130859375000, -0.01273345947265625, -0.03433227539062500, 0.03140258789062500, 0.02441406250000000, 0.00425720214843750, 0.02992248535156250, 0.00667572021484375, -0.01724243164062500, 0.01126098632812500, 0.02665710449218750, 0.00845336914062500, -0.04064941406250000, 0.00200271606445312, -0.04650878906250000, -0.03143310546875000, 0.00573730468750000, -0.03509521484375000, -0.03775024414062500, 0.01531982421875000, -0.02801513671875000, -0.02754211425781250, 0.04345703125000000, 0.03762817382812500, -0.01571655273437500, -0.00852966308593750, 0.01792907714843750, 0.03070068359375000, -0.01838684082031250, -0.01969909667968750, -0.02560424804687500, -0.03616333007812500, -0.00117874145507812, -0.01643371582031250, 0.00722885131835938, -0.05606079101562500, 0.03994750976562500, -0.03686523437500000, -0.04324340820312500, -0.03463745117187500, -0.03637695312500000, -0.03146362304687500, -0.02682495117187500, -0.04959106445312500, -0.05407714843750000, 0.03875732421875000, -0.02708435058593750, 0.01904296875000000, -0.01177215576171875, 0.02052307128906250, 0.01203918457031250, -0.00836944580078125, 0.02041625976562500, -0.01811218261718750, -0.03799438476562500, -0.04531860351562500, 0.03326416015625000, 0.03771972656250000, 0.01817321777343750, -0.02598571777343750, -0.03561401367187500, 0.03668212890625000, 0.02775573730468750, 0.02496337890625000, -0.00526428222656250, -0.01222991943359375, -0.01458740234375000, -0.02954101562500000, -0.05471801757812500, 0.00667572021484375, -0.03930664062500000, -0.03771972656250000, -0.05627441406250000, 0.01206207275390625, -0.02241516113281250, 0.04034423828125000, -0.01171875000000000, 0.02517700195312500, 0.03747558593750000, -0.00942230224609375, 0.01191711425781250, 0.00744628906250000, -0.03948974609375000, -0.02264404296875000, -0.04025268554687500, -0.03778076171875000, 0.02215576171875000, 0.00426101684570312, 0.01879882812500000, -0.00075864791870117, 0.03198242187500000, -0.00585174560546875, -0.02787780761718750, -0.02688598632812500, -0.03707885742187500, 0.01956176757812500, -0.03068542480468750, -0.03668212890625000, -0.05880737304687500, -0.06164550781250000, -0.06811523437500000, -0.04208374023437500, -0.03320312500000000, 0.00146484375000000, 0.02301025390625000, 0.04623413085937500, 0.03866577148437500, -0.04400634765625000, -0.03912353515625000, -0.03439331054687500, 0.01558685302734375, -0.04266357421875000, -0.01387023925781250, -0.02005004882812500, -0.03793334960937500, 0.00261688232421875, -0.03240966796875000, -0.01388549804687500, -0.04598999023437500, 0.01676940917968750, -0.01585388183593750, 0.02384948730468750, 0.01214599609375000, -0.01783752441406250, 0.00688171386718750, -0.01290893554687500, 0.03004455566406250, -0.02850341796875000, -0.07501220703125000, 0.03155517578125000, -0.04431152343750000, 0.02294921875000000, 0.02108764648437500, -0.02534484863281250, 0.00540161132812500, -0.03308105468750000, -0.05813598632812500, -0.03652954101562500, -0.03234863281250000, -0.00346374511718750, -0.02891540527343750, -0.00466156005859375, -0.05892944335937500, -0.01496887207031250, -0.01467132568359375, -0.03472900390625000, -0.06280517578125000, -0.04589843750000000, -0.05541992187500000, -0.04187011718750000, -0.02282714843750000, -0.01678466796875000, 0.01049041748046875, -0.03591918945312500, -0.01872253417968750, -0.05035400390625000, -0.07763671875000000, -0.05221557617187500, 0.03836059570312500, -0.03991699218750000, 0.02197265625000000, -0.00909423828125000, -0.01603698730468750, -0.02011108398437500, -0.05541992187500000, 0.02767944335937500, -0.03390502929687500, 0.00427246093750000, -0.01371002197265625, -0.04745483398437500, -0.01231384277343750, 0.00354766845703125, -0.04904174804687500, -0.06298828125000000, -0.06250000000000000, -0.04415893554687500, 0.00914001464843750, -0.03228759765625000, -0.00130558013916016, -0.02108764648437500, 0.01268768310546875, 0.04476928710937500, 0.02348327636718750, 0.02270507812500000, -0.07043457031250000, -0.04498291015625000, 0.01179504394531250, -0.01748657226562500, 0.00372314453125000, -0.01864624023437500, -0.02342224121093750, -0.04721069335937500, -0.01512908935546875, -0.04019165039062500, -0.00683212280273438, -0.03250122070312500, -0.01047515869140625, 0.03424072265625000, -0.01345062255859375, -0.00450134277343750, -0.04623413085937500, -0.01287078857421875, -0.02073669433593750, -0.03622436523437500, -0.05249023437500000, -0.02850341796875000, 0.00139713287353516, -0.04815673828125000, 0.00470352172851562, 0.02131652832031250, 0.04449462890625000, 0.03656005859375000, -0.02561950683593750, 0.03396606445312500, 0.01493835449218750, 0.03790283203125000, 0.01922607421875000, 0.00186157226562500, -0.01501464843750000, -0.05032348632812500, 0.04605102539062500, 0.03250122070312500, 0.04727172851562500, 0.03161621093750000, 0.02104187011718750, 0.02537536621093750, 0.00959014892578125, 0.01438140869140625, 0.00521087646484375, -0.03860473632812500, -0.00353813171386719, -0.01006317138671875, -0.03887939453125000, -0.02847290039062500, 0.01470184326171875, 0.00097084045410156, 0.02293395996093750, 0.05197143554687500, 0.04156494140625000, 0.05017089843750000, 0.00723648071289062, 0.00718307495117188, -0.03222656250000000, -0.04061889648437500, -0.03546142578125000, 0.00577926635742188, -0.00672531127929688, -0.01966857910156250, 0.00351333618164062, 0.00239181518554688, 0.00878143310546875, -0.01290893554687500, 0.04016113281250000, 0.03524780273437500, 0.03244018554687500, -0.01332092285156250, -0.04391479492187500, 0.03805541992187500, -0.04571533203125000, -0.02143859863281250, -0.02954101562500000, -0.04315185546875000, -0.03054809570312500, -0.00672149658203125, 0.00607299804687500, 0.03201293945312500, 0.03936767578125000, 0.03494262695312500, 0.06689453125000000, -0.01249694824218750, 0.01687622070312500, -0.00604248046875000, 0.01641845703125000, -0.04403686523437500, 0.02543640136718750, -0.01334381103515625, 0.03866577148437500, -0.01233673095703125, 0.04391479492187500, 0.03485107421875000, 0.04382324218750000, 0.03179931640625000, 0.03778076171875000, 0.00949859619140625, 0.00142860412597656, -0.00251197814941406, -0.01878356933593750, -0.00835418701171875, -0.01171112060546875, 0.04791259765625000, 0.00624465942382812, 0.03222656250000000, 0.03067016601562500, 0.02833557128906250, 0.00363922119140625, 0.00575637817382812, 0.06536865234375000, -0.03436279296875000, 0.02522277832031250, 0.01660156250000000, -0.03915405273437500, 0.01910400390625000, -0.03314208984375000, -0.00070571899414062, 0.01628112792968750, 0.00732040405273438, 0.01721191406250000, 0.00731277465820312, 0.00548934936523438, 0.02024841308593750, 0.03817749023437500, -0.01582336425781250, 0.00059700012207031, -0.00619125366210938, -0.04617309570312500, 0.01914978027343750, -0.03942871093750000, 0.03305053710937500, 0.03274536132812500, 0.00599670410156250, 0.04281616210937500, -0.01394653320312500, 0.05038452148437500, -0.00843048095703125, 0.08026123046875000, 0.04693603515625000, 0.01393127441406250, -0.01580810546875000, 0.02319335937500000, -0.04156494140625000, -0.03930664062500000, -0.03784179687500000, 0.03041076660156250, 0.00259208679199219, 0.01519012451171875, 0.00571060180664062, 0.01222229003906250, 0.02503967285156250, 0.02711486816406250, 0.01561737060546875, 0.00270080566406250, -0.00605392456054688, -0.00168991088867188, 0.06069946289062500, 0.00370788574218750, 0.06213378906250000, 0.01121520996093750, -0.01805114746093750, 0.01197814941406250, 0.02632141113281250, 0.01113128662109375, 0.02944946289062500, 0.03881835937500000, -0.03009033203125000, 0.00412750244140625, 0.03790283203125000, -0.01776123046875000, -0.00109195709228516, 0.00701522827148438, 0.01731872558593750, 0.03527832031250000, -0.01338195800781250, 0.01593017578125000, -0.00121307373046875, 0.05776977539062500, 0.06256103515625000, 0.06250000000000000, 0.05389404296875000, 0.01622009277343750, 0.03665161132812500, -0.00831604003906250, 0.03784179687500000, 0.01551055908203125, 0.05230712890625000, 0.01644897460937500, 0.04336547851562500, 0.01045227050781250, 0.03123474121093750, 0.01291656494140625, 0.04873657226562500, 0.02992248535156250, 0.03022766113281250, -0.04409790039062500, -0.02117919921875000, 0.00360679626464844, 0.03729248046875000, -0.02383422851562500, 0.01617431640625000, 0.01937866210937500, 0.00441360473632812, 0.01267242431640625, 0.01049041748046875, 0.04244995117187500, 0.02671813964843750, 0.05548095703125000, 0.03375244140625000, 0.03092956542968750, 0.06005859375000000, 0.01142120361328125, 0.02030944824218750, 0.00466156005859375, -0.00479888916015625, 0.00823974609375000, 0.04556274414062500, 0.04257202148437500, -0.03295898437500000, 0.02334594726562500, 0.05480957031250000, -0.01061248779296875, 0.03765869140625000, 0.01202392578125000, -0.01580810546875000, -0.01543426513671875, -0.02758789062500000, -0.00638961791992188, 0.01161956787109375, 0.00265693664550781, -0.02058410644531250, -0.00859069824218750, 0.01491546630859375, -0.00693893432617188, 0.01090240478515625, 0.06256103515625000, 0.01611328125000000, 0.02983093261718750, 0.02548217773437500, 0.00808715820312500, 0.03924560546875000, 0.04949951171875000, 0.01660156250000000, 0.03720092773437500, -0.00748443603515625, -0.01094055175781250, 0.00592041015625000, -0.02917480468750000, -0.00668334960937500, 0.00212669372558594, 0.04690551757812500, 0.03985595703125000, 0.04547119140625000, -0.04940795898437500, 0.03237915039062500, 0.03720092773437500, 0.04470825195312500, 0.00489807128906250, 0.04458618164062500, 0.03408813476562500, 0.04776000976562500, 0.01200866699218750, 0.01561737060546875, -0.01351928710937500, 0.01881408691406250, -0.00751495361328125, 0.00936889648437500, -0.00415420532226562, 0.00142383575439453, -0.02684020996093750, -0.04272460937500000, -0.02572631835937500, -0.03250122070312500, 0.00731658935546875, -0.00499725341796875, -0.00119113922119141, 0.00227546691894531, -0.05621337890625000, -0.01320648193359375, -0.00537109375000000, 0.03808593750000000, -0.00830078125000000, -0.01065063476562500, 0.01673889160156250, 0.00500106811523438, 0.00003665685653687, 0.01126098632812500, 0.03259277343750000, 0.00106239318847656, 0.02993774414062500, 0.01568603515625000, 0.01797485351562500, -0.03225708007812500, 0.02391052246093750, 0.02053833007812500, -0.04101562500000000, -0.01609802246093750, -0.00651931762695312, -0.00901794433593750, 0.00514984130859375, -0.06091308593750000, 0.00353813171386719, 0.00774002075195312, -0.04168701171875000, -0.05065917968750000, 0.03887939453125000, -0.02217102050781250, 0.01855468750000000, 0.01531982421875000, 0.01660156250000000, 0.02253723144531250, -0.03997802734375000, -0.01644897460937500, -0.00612640380859375, -0.03077697753906250, -0.03009033203125000, 0.02316284179687500, 0.00892639160156250, -0.02253723144531250, 0.03472900390625000, -0.00684738159179688, 0.01071929931640625, -0.02192687988281250, 0.02265930175781250, -0.02134704589843750, -0.04132080078125000, -0.05184936523437500, -0.06250000000000000, -0.04666137695312500, -0.06106567382812500, -0.04376220703125000, 0.01316833496093750, 0.04370117187500000, 0.02912902832031250, -0.01976013183593750, 0.02404785156250000, 0.02227783203125000, 0.03472900390625000, -0.02645874023437500, -0.04171752929687500, -0.00608444213867188, 0.00281715393066406, -0.03701782226562500, -0.04028320312500000, -0.00828552246093750, -0.04626464843750000, -0.06414794921875000, -0.06695556640625000, -0.05136108398437500, -0.06463623046875000, -0.05807495117187500, -0.06268310546875000, -0.05371093750000000, -0.02870178222656250, -0.04888916015625000, -0.04605102539062500, -0.06112670898437500, 0.02001953125000000, -0.00638961791992188, -0.01560211181640625, 0.01018524169921875, 0.03729248046875000, 0.00076532363891602, 0.00665283203125000, 0.04296875000000000, 0.04577636718750000, 0.04547119140625000, 0.03668212890625000, 0.00640487670898438, 0.00187301635742188, -0.00759506225585938, -0.04220581054687500, 0.01951599121093750, -0.04754638671875000, -0.03628540039062500, 0.04684448242187500, -0.04049682617187500, -0.02369689941406250, -0.03808593750000000, 0.02052307128906250, 0.00994110107421875, -0.03186035156250000, -0.00550079345703125, 0.04870605468750000, 0.01434326171875000, -0.02000427246093750, -0.05001831054687500, 0.03900146484375000, -0.02987670898437500, 0.01788330078125000, -0.04110717773437500, -0.01571655273437500, 0.02789306640625000, -0.02128601074218750, 0.04107666015625000, -0.04168701171875000, -0.03826904296875000, 0.01873779296875000, -0.01336669921875000, -0.00820922851562500, 0.00204467773437500, -0.02215576171875000, 0.01544189453125000, -0.00774383544921875, -0.04089355468750000, -0.02226257324218750, 0.01257324218750000, -0.04785156250000000, 0.02166748046875000, 0.01307678222656250, 0.00350952148437500, 0.01585388183593750, -0.03457641601562500, 0.02380371093750000, 0.01153564453125000, -0.02645874023437500, -0.01309204101562500, -0.02410888671875000, 0.04815673828125000, 0.00302124023437500, 0.02978515625000000, 0.00341796875000000, -0.04968261718750000, -0.02694702148437500, -0.04675292968750000, 0.03387451171875000, 0.00360107421875000, -0.04031372070312500, -0.01074218750000000, -0.01580810546875000, 0.04425048828125000, 0.04644775390625000, 0.02911376953125000, -0.02870178222656250, -0.02157592773437500, -0.02832031250000000, -0.03591918945312500, -0.00408935546875000, -0.04257202148437500, 0.00283813476562500, 0.01477050781250000, 0.03973388671875000, 0.02087402343750000, -0.02655029296875000, 0.02520751953125000, 0.02459716796875000, 0.01647949218750000, 0.03497314453125000, 0.04156494140625000, 0.03546142578125000, -0.00155639648437500, -0.03906250000000000, -0.03475952148437500, 0.02355957031250000, -0.03485107421875000, 0.04089355468750000, 0.02478027343750000, 0.01739501953125000, -0.03991699218750000, 0.02233886718750000, -0.04861450195312500, 0.00547790527343750, 0.05828857421875000, -0.01181030273437500, 0.03869628906250000, -0.04608154296875000, 0.02136230468750000, -0.04470825195312500, 0.01345825195312500, -0.03170776367187500, 0.00350952148437500, 0.00927734375000000, 0.04394531250000000, 0.00634765625000000, -0.03671264648437500, -0.04284667968750000, 0.01916503906250000, 0.00820922851562500, 0.03125000000000000, 0.03778076171875000, 0.00302124023437500, -0.00360107421875000, -0.03778076171875000, -0.01806640625000000, 0.01823425292968750, -0.03289794921875000, -0.01272583007812500, 0.00431823730468750, 0.01483154296875000, 0.02227783203125000, -0.02992248535156250, 0.00776290893554688, 0.03869628906250000, 0.00823974609375000, -0.04443359375000000, 0.03005981445312500, 0.03308105468750000, -0.05334472656250000, -0.03851318359375000, -0.00815582275390625, -0.01351928710937500, 0.03027343750000000, -0.03356933593750000, -0.04052734375000000, 0.02886962890625000, -0.02978515625000000, 0.02911376953125000, 0.04333496093750000, 0.03289794921875000, -0.04183959960937500, -0.04818725585937500, 0.00924682617187500, -0.03494262695312500, 0.00928497314453125, 0.00442504882812500, 0.01065063476562500, -0.01704406738281250, -0.02488708496093750, -0.02272033691406250, -0.06378173828125000, -0.06481933593750000, -0.04266357421875000, -0.04852294921875000, -0.06130981445312500, -0.04611206054687500, -0.01841735839843750, -0.05914306640625000, -0.04528808593750000, -0.02865600585937500, -0.01795959472656250, -0.00908660888671875, -0.01620483398437500, 0.01989746093750000, 0.01083374023437500, 0.03674316406250000, -0.00908660888671875, 0.00967407226562500, -0.04483032226562500, -0.03610229492187500, -0.04800415039062500, 0.01834106445312500, -0.01968383789062500, -0.04968261718750000, -0.05145263671875000, -0.02345275878906250, -0.00574111938476562, 0.02172851562500000, 0.01898193359375000, -0.01473999023437500, 0.00151824951171875, -0.00909423828125000, -0.04595947265625000, -0.02154541015625000, -0.01924133300781250, -0.05545043945312500, -0.02774047851562500, 0.02026367187500000, 0.00862121582031250, 0.00004506111145020, 0.02334594726562500, 0.03192138671875000, -0.01864624023437500, -0.04452514648437500, -0.00011420249938965, 0.01342010498046875, 0.00726318359375000, -0.03854370117187500, -0.03454589843750000, -0.00277900695800781, -0.06378173828125000, 0.00068950653076172, -0.00831604003906250, -0.04193115234375000, 0.02291870117187500, -0.03234863281250000, 0.00451278686523438, -0.01130676269531250, -0.03637695312500000, 0.00139999389648438, 0.00893402099609375, 0.02081298828125000, -0.03494262695312500, 0.02171325683593750, -0.01364135742187500, 0.01756286621093750, 0.02854919433593750, -0.02923583984375000, 0.02148437500000000, -0.00088500976562500, 0.03839111328125000, -0.00388717651367188, 0.01291656494140625, 0.03228759765625000, 0.00891113281250000, -0.05215454101562500, -0.05917358398437500, -0.04708862304687500, -0.04165649414062500, 0.00907897949218750, -0.06329345703125000, 0.00729751586914062, 0.03912353515625000, -0.00968933105468750, -0.00753784179687500, 0.01499938964843750, -0.01003265380859375, 0.01586914062500000, 0.00156879425048828, 0.00481414794921875, 0.03378295898437500, 0.02438354492187500, -0.00919342041015625, 0.01545715332031250, 0.04919433593750000, 0.04806518554687500, 0.04431152343750000, -0.01260375976562500, -0.02066040039062500, -0.03729248046875000, -0.01629638671875000, -0.02590942382812500, -0.01277923583984375, -0.06335449218750000, 0.00767135620117188, -0.01462554931640625, -0.01419830322265625, -0.01023101806640625, 0.04251098632812500, 0.01457214355468750, -0.01251983642578125, 0.02247619628906250, 0.04388427734375000, 0.03311157226562500, 0.02938842773437500, 0.03097534179687500, 0.02890014648437500, -0.01430511474609375, 0.03723144531250000, -0.00727462768554688, 0.02209472656250000, 0.03085327148437500, 0.03001403808593750, 0.03378295898437500, 0.00359153747558594, -0.04550170898437500, -0.04348754882812500, -0.00673675537109375, -0.00830078125000000, 0.01311492919921875, -0.01582336425781250, -0.00871276855468750, 0.01892089843750000, -0.02896118164062500, 0.02998352050781250, -0.03631591796875000, -0.00357055664062500, -0.01439666748046875, 0.01422119140625000, 0.00681304931640625, 0.01129150390625000, -0.02044677734375000, 0.02709960937500000, -0.00319862365722656, -0.00057220458984375, 0.00097179412841797, 0.02229309082031250, 0.02328491210937500, 0.02174377441406250, 0.06347656250000000, 0.04232788085937500, 0.06311035156250000, -0.00293159484863281, 0.00918579101562500, 0.02815246582031250, 0.00624847412109375, -0.05212402343750000, 0.00860595703125000, -0.02337646484375000, 0.00420761108398438, 0.00748443603515625, -0.00209808349609375, 0.02360534667968750, -0.00113582611083984, 0.04028320312500000, 0.00406265258789062, 0.02949523925781250, -0.03802490234375000, -0.00426864624023438, -0.00069618225097656, 0.00458145141601562, 0.02992248535156250, 0.03921508789062500, 0.03317260742187500, 0.04238891601562500, 0.04141235351562500, 0.04672241210937500, 0.06286621093750000, 0.07110595703125000, 0.01465606689453125, 0.01012420654296875, 0.03439331054687500, -0.01305389404296875, 0.02987670898437500, -0.02928161621093750, 0.01279449462890625, -0.04702758789062500, -0.00642013549804688, -0.04498291015625000, 0.01229095458984375, 0.00646591186523438, 0.00046634674072266, 0.01003265380859375, -0.02445983886718750, 0.02627563476562500, -0.04010009765625000, 0.02287292480468750, -0.02568054199218750, -0.03506469726562500, -0.01979064941406250, -0.00306701660156250, 0.00821685791015625, 0.01517486572265625, 0.03341674804687500, 0.05026245117187500, 0.06298828125000000, 0.07031250000000000, 0.03125000000000000, -0.04327392578125000, 0.03991699218750000, 0.03216552734375000, -0.03353881835937500, 0.03671264648437500, -0.01023864746093750, -0.01707458496093750, 0.00613403320312500, -0.00250816345214844, 0.02984619140625000, 0.02763366699218750, 0.01614379882812500, 0.03884887695312500, -0.01696777343750000, 0.02420043945312500, 0.03143310546875000, -0.05349731445312500, -0.02693176269531250, -0.05331420898437500, 0.01617431640625000, -0.00827026367187500, -0.03973388671875000, 0.01247406005859375, 0.03305053710937500, 0.04351806640625000, 0.05300903320312500, 0.07568359375000000, 0.03182983398437500, -0.01913452148437500, -0.01435852050781250, -0.03796386718750000, -0.03259277343750000, -0.01626586914062500, 0.01002502441406250, 0.01684570312500000, 0.02293395996093750, 0.02059936523437500, 0.03146362304687500, 0.01333618164062500, -0.00985717773437500, 0.02070617675781250, 0.02743530273437500, 0.01945495605468750, 0.04315185546875000, 0.01960754394531250, -0.05218505859375000, -0.04733276367187500, -0.00558853149414062, -0.06298828125000000, 0.01132965087890625, -0.06311035156250000, -0.01856994628906250, -0.05395507812500000, 0.00200080871582031, -0.02043151855468750, -0.02635192871093750, 0.01284027099609375, 0.02423095703125000, -0.02836608886718750, -0.01486968994140625, 0.02711486816406250, -0.02168273925781250, -0.00513458251953125, -0.02427673339843750, -0.00388145446777344, 0.00348472595214844, 0.01863098144531250, -0.02185058593750000, -0.01100921630859375, 0.03601074218750000, 0.01847839355468750, 0.06069946289062500, 0.02523803710937500, 0.01829528808593750, 0.02279663085937500, -0.04531860351562500, -0.01765441894531250, -0.03186035156250000, -0.06268310546875000, -0.06439208984375000, -0.05603027343750000, -0.05917358398437500, 0.02865600585937500, -0.00467681884765625, -0.00058746337890625, -0.00782775878906250, 0.01348876953125000, 0.01201629638671875, 0.04412841796875000, -0.01144409179687500, -0.05584716796875000, -0.04360961914062500, -0.03967285156250000, -0.01337432861328125, 0.02780151367187500, 0.01171875000000000, -0.00547790527343750, -0.02836608886718750, 0.06051635742187500, 0.05725097656250000, 0.02226257324218750, -0.00416183471679688, -0.04846191406250000, 0.01335906982421875, -0.01103210449218750, -0.06427001953125000, -0.06579589843750000, -0.05340576171875000, -0.07415771484375000, -0.05032348632812500, 0.00742340087890625, 0.02554321289062500, -0.00878906250000000, 0.03326416015625000, -0.04919433593750000, -0.04577636718750000, 0.02864074707031250, -0.05160522460937500, -0.01756286621093750, -0.02258300781250000, -0.00700378417968750, -0.00660324096679688, 0.01133728027343750, -0.05184936523437500, 0.02920532226562500, 0.01219940185546875, 0.04101562500000000, 0.03222656250000000, -0.01000976562500000, -0.05819702148437500, 0.01574707031250000, -0.06021118164062500, -0.05340576171875000, -0.05816650390625000, -0.06762695312500000, -0.08044433593750000, -0.08081054687500000, -0.06127929687500000, -0.00955963134765625, -0.05319213867187500, -0.04446411132812500, -0.04650878906250000, 0.03646850585937500, 0.01532745361328125, 0.01090240478515625, -0.06561279296875000, -0.04571533203125000, -0.01631164550781250, -0.06311035156250000, -0.03231811523437500, -0.00659561157226562, -0.01620483398437500, 0.00273704528808594, 0.00293159484863281, 0.05358886718750000, -0.01002502441406250, 0.01292419433593750, -0.02345275878906250, -0.01417541503906250, 0.01503753662109375, -0.04742431640625000, -0.03805541992187500, -0.05685424804687500, -0.07073974609375000, -0.03933715820312500, -0.06280517578125000, -0.00103569030761719, -0.00153923034667969, -0.05166625976562500, -0.00048828125000000, -0.04217529296875000, -0.02337646484375000, 0.02740478515625000, 0.02825927734375000, 0.03637695312500000, 0.01916503906250000, -0.03976440429687500, -0.04867553710937500, -0.00965118408203125, 0.02821350097656250, -0.01329803466796875, 0.02983093261718750, 0.01597595214843750, 0.01335906982421875, -0.01235961914062500, -0.01295471191406250, -0.02017211914062500, -0.01715087890625000, 0.03234863281250000, -0.01623535156250000, -0.03887939453125000, -0.06683349609375000, -0.04672241210937500, -0.06616210937500000, -0.03875732421875000, 0.01239776611328125, 0.02459716796875000, 0.04754638671875000, -0.03982543945312500, -0.04241943359375000, -0.00948333740234375, -0.04318237304687500, -0.02033996582031250, 0.03622436523437500, 0.02908325195312500, -0.00157356262207031, -0.00279235839843750, -0.02349853515625000, 0.02046203613281250, -0.00414657592773438, -0.01910400390625000, -0.00018215179443359, -0.02287292480468750, 0.04138183593750000, 0.01180267333984375, 0.00321006774902344, 0.00961303710937500, -0.03579711914062500, -0.05831909179687500, -0.07177734375000000, -0.07714843750000000, -0.06335449218750000, -0.00661849975585938, 0.00428771972656250, -0.03582763671875000, 0.03057861328125000, -0.01296997070312500, -0.04064941406250000, -0.05426025390625000, -0.03842163085937500, 0.00290489196777344, -0.01423645019531250, 0.00578689575195312, -0.02316284179687500, 0.02574157714843750, 0.01667785644531250, -0.02455139160156250, -0.00854492187500000, 0.02032470703125000, -0.01087188720703125, 0.02990722656250000, -0.00357246398925781, 0.00529479980468750, 0.02548217773437500, -0.00022363662719727, 0.05227661132812500, -0.04818725585937500, -0.07403564453125000, -0.05905151367187500, -0.04013061523437500, 0.01162719726562500, -0.02511596679687500, -0.00128173828125000, 0.04235839843750000, -0.01844787597656250, 0.02059936523437500, -0.03848266601562500, -0.04412841796875000, -0.04611206054687500, 0.02641296386718750, 0.03128051757812500, 0.02809143066406250, 0.01115417480468750, 0.01387023925781250, -0.03359985351562500, 0.00173568725585938, -0.01208496093750000, -0.04214477539062500, 0.00526428222656250, -0.00089263916015625, -0.03546142578125000, 0.01916503906250000, 0.02549743652343750, 0.00827026367187500, -0.05987548828125000, -0.06945800781250000, -0.02781677246093750, -0.03710937500000000, 0.02781677246093750, 0.00444412231445312, -0.02441406250000000, 0.02160644531250000, -0.05014038085937500, 0.03674316406250000, -0.04821777343750000, -0.06909179687500000, -0.00720977783203125, 0.03007507324218750, -0.00640106201171875, -0.00592422485351562, 0.03137207031250000, -0.00301742553710938, 0.01573181152343750, -0.04028320312500000, -0.00621795654296875, 0.00107955932617188, -0.05044555664062500, -0.00729370117187500, 0.03405761718750000, -0.03573608398437500, 0.02479553222656250, -0.04251098632812500, -0.01274108886718750, -0.03274536132812500, -0.00178718566894531, -0.04867553710937500, -0.03216552734375000, -0.05432128906250000, -0.02128601074218750, 0.00262451171875000, 0.02624511718750000, -0.02893066406250000, -0.00360488891601562, -0.05798339843750000, -0.02578735351562500, -0.01702880859375000, 0.00381851196289062, -0.02307128906250000, -0.00451660156250000, -0.04077148437500000, 0.03460693359375000, 0.01898193359375000, 0.00225639343261719, 0.01502990722656250, -0.01270294189453125, -0.02406311035156250, -0.01056671142578125, 0.02282714843750000, -0.05426025390625000, -0.01210784912109375, -0.05545043945312500, -0.05364990234375000, -0.03640747070312500, 0.03219604492187500, 0.00169944763183594, 0.00570297241210938, 0.03826904296875000, 0.00616455078125000, 0.03936767578125000, -0.03540039062500000, -0.01646423339843750, -0.04605102539062500, 0.02653503417968750, -0.01242065429687500, -0.01774597167968750, 0.01432037353515625, 0.02229309082031250, 0.02641296386718750, 0.00338935852050781, 0.00435638427734375, 0.01766967773437500, 0.03918457031250000, 0.01258850097656250, 0.00803375244140625, 0.02786254882812500, -0.05218505859375000, 0.01071166992187500, 0.01481628417968750, -0.06671142578125000, -0.00937652587890625, -0.04681396484375000, -0.01129150390625000, -0.04083251953125000, -0.02612304687500000, -0.00936889648437500, 0.00430297851562500, -0.01873779296875000, 0.01034545898437500, -0.03857421875000000, -0.03775024414062500, -0.06445312500000000, -0.06060791015625000, -0.05831909179687500, -0.01450347900390625, -0.00985717773437500, -0.04159545898437500, -0.00004124641418457, 0.03637695312500000, -0.02134704589843750, 0.02891540527343750, 0.01284790039062500, 0.05511474609375000, 0.01161956787109375, 0.06219482421875000, -0.03665161132812500, -0.02810668945312500, -0.02259826660156250, 0.01882934570312500, 0.02767944335937500, 0.02870178222656250, 0.02882385253906250, -0.04568481445312500, -0.01065063476562500, -0.03591918945312500, -0.04412841796875000, 0.02947998046875000, 0.01828002929687500, 0.00341224670410156, -0.06933593750000000, -0.06732177734375000, -0.06561279296875000, -0.04653930664062500, 0.00445938110351562, -0.03311157226562500, -0.01303100585937500, -0.00033068656921387, 0.00477600097656250, -0.02310180664062500, 0.01155090332031250, -0.03134155273437500, 0.04708862304687500, 0.00159645080566406, 0.01773071289062500, -0.05642700195312500, 0.01525115966796875, 0.00069475173950195, -0.02967834472656250, 0.03787231445312500, -0.01375579833984375, -0.01035308837890625, 0.00714111328125000, 0.03112792968750000, -0.01776123046875000, 0.02130126953125000, -0.00985717773437500, -0.03634643554687500, -0.04083251953125000, -0.04547119140625000, -0.04275512695312500, -0.06152343750000000, -0.04925537109375000, -0.00565338134765625, 0.00232696533203125, 0.01509857177734375, -0.03146362304687500, 0.00568771362304688, 0.02381896972656250, -0.00932312011718750, 0.05014038085937500, 0.01406097412109375, 0.01074981689453125, -0.01327514648437500, 0.00911712646484375, 0.00166702270507812, 0.02355957031250000, -0.04431152343750000, 0.02966308593750000, -0.04101562500000000, -0.04177856445312500, -0.04501342773437500, 0.02520751953125000, -0.01806640625000000, -0.03134155273437500, -0.01376342773437500, 0.02215576171875000, 0.04718017578125000, 0.02111816406250000, -0.00466156005859375, -0.02201843261718750, -0.04696655273437500, 0.02412414550781250, -0.01158142089843750, 0.03448486328125000, -0.02128601074218750, -0.04800415039062500, -0.03421020507812500, -0.00757217407226562, -0.02537536621093750, -0.00621795654296875, -0.00567626953125000, -0.04656982421875000, 0.02464294433593750, -0.00674438476562500, 0.02111816406250000, -0.00750732421875000, 0.04400634765625000, 0.04302978515625000, 0.03741455078125000, 0.00009155273437500, -0.00897216796875000, 0.01696777343750000, -0.02694702148437500, 0.03015136718750000, 0.02496337890625000, -0.02880859375000000, 0.03448486328125000, 0.03839111328125000, 0.00643920898437500, -0.01629638671875000, -0.04284667968750000, -0.02343750000000000, 0.03466796875000000, -0.04412841796875000, -0.01913452148437500, 0.00360107421875000, -0.03915405273437500, 0.00506591796875000, 0.00018310546875000, 0.00518798828125000, -0.01651000976562500, 0.04217529296875000, -0.00488281250000000, 0.02087402343750000, -0.04714965820312500, 0.04132080078125000, -0.04763793945312500, 0.03936767578125000, 0.00204467773437500, -0.00439453125000000, -0.02763366699218750, -0.04577636718750000, -0.01531982421875000, 0.01495361328125000, -0.01814270019531250, -0.01895141601562500, -0.03851318359375000, -0.04550170898437500, -0.03735351562500000, 0.02841186523437500, -0.03466796875000000, 0.05450439453125000, -0.01823425292968750, -0.01945495605468750, 0.02545166015625000, 0.00296020507812500, 0.03930664062500000, -0.03094482421875000, 0.02624511718750000, -0.00634765625000000, -0.03105163574218750, 0.00616455078125000, -0.04150390625000000, -0.03210449218750000, -0.01757812500000000, 0.02764892578125000, 0.02978515625000000, -0.02812194824218750, -0.04461669921875000, 0.02734375000000000, 0.04339599609375000, -0.01172637939453125, -0.02699279785156250, -0.02830505371093750, 0.01657104492187500, 0.01750183105468750, 0.03692626953125000, 0.03253173828125000, -0.00513839721679688, 0.06329345703125000, 0.04837036132812500, -0.02194213867187500, -0.03048706054687500, -0.01110839843750000, 0.02030944824218750, -0.04812622070312500, 0.01589965820312500, -0.01637268066406250, -0.03738403320312500, -0.02091979980468750, 0.03448486328125000, 0.01257324218750000, -0.01806640625000000, -0.02978515625000000, 0.01065826416015625, -0.03982543945312500, -0.02508544921875000, -0.01887512207031250, -0.00033736228942871, 0.04843139648437500, 0.04754638671875000, -0.01811218261718750, -0.01354217529296875, 0.02694702148437500, 0.03799438476562500, 0.06262207031250000, 0.01052093505859375, 0.02949523925781250, 0.05551147460937500, -0.00325393676757812, 0.00265693664550781, -0.02368164062500000, -0.04412841796875000, -0.06683349609375000, -0.02450561523437500, 0.01371002197265625, -0.05151367187500000, 0.02740478515625000, -0.02801513671875000, -0.01016235351562500, 0.00967407226562500, -0.03105163574218750, -0.03598022460937500, -0.02828979492187500, -0.00433731079101562, -0.01379394531250000, -0.01686096191406250, -0.02291870117187500, 0.04083251953125000, 0.03198242187500000, 0.03034973144531250, -0.00111103057861328, 0.03967285156250000, 0.02397155761718750, 0.02919006347656250, 0.02905273437500000, 0.01843261718750000, -0.01115417480468750, 0.03433227539062500, -0.02534484863281250, 0.01331329345703125, -0.00476455688476562, -0.03805541992187500, -0.02696228027343750, 0.00875854492187500, 0.02404785156250000, -0.01776123046875000, -0.03231811523437500, 0.04138183593750000, -0.01434326171875000, -0.00762176513671875, -0.00801849365234375, 0.00879669189453125, 0.05105590820312500, 0.01614379882812500, 0.06155395507812500, 0.00606536865234375, -0.03170776367187500, 0.02032470703125000, -0.01748657226562500, -0.01213836669921875, 0.02151489257812500, -0.04641723632812500, 0.01289367675781250, 0.00051784515380859, -0.01696777343750000, -0.02084350585937500, -0.00959777832031250, 0.00097608566284180, 0.01652526855468750, -0.03683471679687500, -0.06500244140625000, -0.02433776855468750, -0.03567504882812500, -0.00611114501953125, -0.04226684570312500, -0.04013061523437500, 0.00976562500000000, 0.02171325683593750, 0.05166625976562500, 0.06088256835937500, 0.03448486328125000, 0.03384399414062500, -0.02519226074218750, -0.01189422607421875, 0.02857971191406250, 0.00382995605468750, -0.00531387329101562, 0.02290344238281250, 0.03576660156250000, 0.03198242187500000, 0.03131103515625000, -0.02989196777343750, 0.01234436035156250, 0.01187896728515625, 0.02883911132812500, -0.01867675781250000, -0.04223632812500000, -0.05935668945312500, -0.06732177734375000, -0.02694702148437500, -0.02462768554687500, 0.00067234039306641, -0.01893615722656250, 0.02595520019531250, -0.01931762695312500, -0.00823211669921875, 0.01788330078125000, 0.05755615234375000, 0.05535888671875000, -0.02310180664062500, -0.00628662109375000, -0.02206420898437500, 0.00076007843017578, 0.01930236816406250, -0.03417968750000000, 0.03295898437500000, -0.03890991210937500, -0.01123046875000000, -0.00507736206054688, 0.02746582031250000, -0.01056671142578125, -0.01489257812500000, -0.01089477539062500, 0.01669311523437500, -0.00112056732177734, -0.04827880859375000, -0.04504394531250000, -0.08044433593750000, -0.03216552734375000, 0.00585937500000000, -0.00554275512695312, 0.00405502319335938, 0.00421524047851562, 0.04553222656250000, 0.02194213867187500, 0.01369476318359375, -0.00359916687011719, 0.05099487304687500, 0.04519653320312500, 0.01535797119140625, -0.00342369079589844, -0.00418090820312500, -0.03823852539062500, 0.02264404296875000, -0.01808166503906250, 0.04083251953125000, 0.01090240478515625, -0.04550170898437500, 0.03839111328125000, 0.02088928222656250, 0.00923156738281250, 0.01107788085937500, -0.03982543945312500, -0.05285644531250000, -0.07391357421875000, -0.08123779296875000, 0.01542663574218750, -0.01464080810546875, 0.02062988281250000, 0.00399780273437500, -0.00939178466796875, -0.03152465820312500, 0.03726196289062500, 0.06341552734375000, 0.01085662841796875, -0.02267456054687500, 0.00474166870117188, -0.03056335449218750, -0.03906250000000000, -0.03082275390625000, -0.06390380859375000, -0.03906250000000000, 0.01942443847656250, 0.01213073730468750, 0.06127929687500000, 0.04660034179687500, 0.02442932128906250, 0.01296997070312500, 0.00793457031250000, -0.00134944915771484, 0.01346588134765625, -0.03332519531250000, -0.07012939453125000, -0.07885742187500000, -0.04061889648437500, -0.01887512207031250, -0.02197265625000000, -0.04873657226562500, 0.00565719604492188, 0.03829956054687500, 0.00718307495117188, 0.05801391601562500, 0.03707885742187500, -0.02227783203125000, -0.02818298339843750, -0.06298828125000000, -0.06469726562500000, -0.04574584960937500, -0.05297851562500000, -0.06304931640625000, -0.00621032714843750, 0.03619384765625000, 0.06195068359375000, 0.04998779296875000, 0.01408386230468750, 0.00646209716796875, 0.02854919433593750, -0.00038433074951172, -0.02784729003906250, -0.03814697265625000, -0.06250000000000000, -0.05285644531250000, -0.02479553222656250, 0.03634643554687500, 0.04800415039062500, -0.04568481445312500, 0.01100158691406250, 0.06402587890625000, 0.03750610351562500, 0.03536987304687500, -0.02136230468750000, -0.03924560546875000, -0.06286621093750000, -0.06365966796875000, -0.06323242187500000, -0.03845214843750000, -0.01876831054687500, -0.03833007812500000, 0.02645874023437500, 0.06286621093750000, 0.03228759765625000, -0.00173377990722656, -0.00942993164062500, 0.04299926757812500, 0.03378295898437500, -0.00146293640136719, -0.00087499618530273, -0.03317260742187500, -0.03433227539062500, -0.01599121093750000, -0.02957153320312500, -0.02949523925781250, 0.03277587890625000, -0.03662109375000000, 0.03561401367187500, -0.01734924316406250, 0.02589416503906250, -0.06701660156250000, -0.03277587890625000, -0.05297851562500000, -0.05941772460937500, -0.01154327392578125, -0.00654220581054688, -0.00733566284179688, -0.02490234375000000, 0.01866149902343750, 0.03131103515625000, 0.06274414062500000, 0.03170776367187500, 0.01277923583984375, 0.02967834472656250, -0.01181030273437500, -0.03656005859375000, -0.01756286621093750, -0.03555297851562500, -0.06188964843750000, -0.02070617675781250, 0.00030493736267090, 0.05416870117187500, -0.04769897460937500, -0.01571655273437500, -0.01933288574218750, 0.04144287109375000, 0.01230621337890625, -0.04324340820312500, -0.07366943359375000, -0.02656555175781250, -0.03787231445312500, 0.03649902343750000, -0.03768920898437500, 0.02462768554687500, -0.00246810913085938, -0.01731872558593750, 0.03015136718750000, 0.01403045654296875, 0.05392456054687500, 0.03768920898437500, -0.00333786010742188, -0.03552246093750000, -0.04382324218750000, -0.01027679443359375, -0.03083801269531250, -0.00223541259765625, -0.06420898437500000, -0.03271484375000000, -0.00824737548828125, -0.01386260986328125, 0.02975463867187500, 0.04077148437500000, 0.00079345703125000, 0.02554321289062500, -0.05184936523437500, -0.02075195312500000, -0.00920867919921875, -0.06494140625000000, -0.00581359863281250, -0.02969360351562500, 0.01055145263671875, -0.00736236572265625, -0.01280975341796875, -0.01486968994140625, -0.02142333984375000, 0.03015136718750000, 0.06219482421875000, 0.02973937988281250, -0.00946044921875000, -0.03018188476562500, 0.00575256347656250, 0.02764892578125000, -0.01701354980468750, 0.03182983398437500, 0.01229858398437500, -0.02593994140625000, 0.03680419921875000, 0.04876708984375000, -0.04028320312500000, 0.00590896606445312, 0.03356933593750000, 0.00044703483581543, 0.05007934570312500, 0.04586791992187500, 0.02627563476562500, -0.00906372070312500, -0.03552246093750000, -0.03488159179687500, 0.01855468750000000, -0.00031208992004395, -0.03363037109375000, -0.00502395629882812, 0.00294113159179688, 0.06024169921875000, 0.04779052734375000, -0.01594543457031250, -0.04031372070312500, 0.02241516113281250, -0.01646423339843750, -0.00692367553710938, 0.03939819335937500, -0.01407623291015625, 0.05053710937500000, -0.01687622070312500, -0.02793884277343750, -0.03062438964843750, -0.02572631835937500, -0.03005981445312500, -0.00714111328125000, 0.01157379150390625, -0.00255012512207031, 0.01418304443359375, 0.00316619873046875, 0.00321197509765625, 0.00731277465820312, -0.03598022460937500, -0.01087188720703125, -0.06149291992187500, -0.02673339843750000, -0.02140808105468750, -0.03863525390625000, 0.03277587890625000, 0.02650451660156250, -0.01223754882812500, -0.03585815429687500, -0.01670837402343750, 0.00081348419189453, 0.03143310546875000, -0.01812744140625000, 0.00603866577148438, 0.04132080078125000, 0.04718017578125000, -0.00484848022460938, -0.01948547363281250, 0.00905609130859375, -0.04086303710937500, 0.04107666015625000, 0.01733398437500000, -0.00909423828125000, 0.04348754882812500, -0.00595092773437500, -0.05609130859375000, -0.03811645507812500, -0.00836181640625000, -0.04376220703125000, -0.05847167968750000, -0.06286621093750000, -0.06256103515625000, -0.06329345703125000, -0.01591491699218750, 0.00230598449707031, -0.03598022460937500, 0.00971984863281250, 0.00307273864746094, 0.01550292968750000, 0.03167724609375000, -0.02400207519531250, 0.03930664062500000, 0.04412841796875000, 0.01354217529296875, -0.02947998046875000, -0.04522705078125000, 0.03729248046875000, -0.04412841796875000, -0.02401733398437500, -0.00213623046875000, 0.01969909667968750, 0.05599975585937500, 0.02803039550781250, 0.00550460815429688, 0.00692367553710938, -0.04357910156250000, -0.00363731384277344, -0.02328491210937500, -0.06329345703125000, -0.06323242187500000, -0.03952026367187500, -0.04122924804687500, -0.04370117187500000, -0.04391479492187500, -0.04879760742187500, -0.03753662109375000, -0.00386619567871094, -0.00773620605468750, 0.05822753906250000, 0.01745605468750000, 0.01335144042968750, -0.03518676757812500, -0.02082824707031250, -0.03942871093750000, -0.01392364501953125, 0.00606918334960938, -0.04559326171875000, 0.00578308105468750, 0.01585388183593750, 0.03268432617187500, -0.00278472900390625, -0.00604629516601562, -0.03707885742187500, 0.02944946289062500, -0.04205322265625000, 0.00691223144531250, 0.00295066833496094, -0.00492477416992188, -0.04019165039062500, 0.01419067382812500, 0.04940795898437500, 0.01692199707031250, 0.04110717773437500, 0.02436828613281250, 0.01623535156250000, 0.02615356445312500, -0.01470947265625000, 0.03149414062500000, 0.03274536132812500, -0.03555297851562500, -0.03372192382812500, -0.03022766113281250, 0.04879760742187500, 0.04592895507812500, -0.04080200195312500, 0.01339721679687500, 0.01834106445312500, 0.03720092773437500, 0.05810546875000000, -0.01164245605468750, 0.03613281250000000, 0.00167083740234375, 0.01408386230468750, 0.01283264160156250, 0.01870727539062500, -0.01315307617187500, 0.00014615058898926, -0.03582763671875000, -0.01046752929687500, -0.01620483398437500, -0.00065231323242188, 0.00470733642578125, -0.00708389282226562, 0.02037048339843750, -0.01038360595703125, 0.02453613281250000, -0.05722045898437500, -0.03105163574218750, -0.01687622070312500, -0.03004455566406250, -0.04312133789062500, 0.01550292968750000, -0.02020263671875000, -0.01913452148437500, -0.03839111328125000, 0.02021789550781250, 0.00931549072265625, 0.02209472656250000, 0.05615234375000000, -0.03482055664062500, 0.01373291015625000, 0.01556396484375000, -0.01805114746093750, -0.00417327880859375, -0.03768920898437500, 0.02076721191406250, -0.04202270507812500, 0.00847625732421875, 0.02702331542968750, 0.01505279541015625, -0.02609252929687500, -0.00637435913085938, -0.02590942382812500, -0.00580596923828125, -0.02555847167968750, -0.04632568359375000, -0.03475952148437500, -0.03506469726562500, 0.02545166015625000, -0.04901123046875000, 0.01220703125000000, 0.00177001953125000, 0.03555297851562500, 0.02896118164062500, 0.04159545898437500, 0.01986694335937500, 0.01553344726562500, 0.02214050292968750, 0.00270652770996094, -0.00843048095703125, -0.01969909667968750, 0.03604125976562500, -0.03842163085937500, -0.01808166503906250, 0.00700378417968750, -0.02247619628906250, 0.00640869140625000, -0.00525665283203125, 0.02124023437500000, -0.01515197753906250, 0.01625061035156250, -0.04013061523437500, -0.04977416992187500, -0.06707763671875000, -0.03561401367187500, -0.03903198242187500, 0.03323364257812500, 0.01989746093750000, 0.00372314453125000, -0.03155517578125000, 0.01340484619140625, 0.01476287841796875, 0.01788330078125000, 0.04403686523437500, 0.03253173828125000, 0.01560211181640625, -0.00354766845703125, 0.04028320312500000, 0.00026273727416992, 0.03083801269531250, -0.04229736328125000, -0.02958679199218750, 0.02005004882812500, 0.01238250732421875, -0.03369140625000000, 0.05142211914062500, 0.00448226928710938, -0.03292846679687500, -0.02722167968750000, -0.03854370117187500, -0.07208251953125000, -0.01523590087890625, -0.03198242187500000, -0.03115844726562500, 0.04901123046875000, -0.03182983398437500, 0.00936889648437500, 0.03466796875000000, 0.05087280273437500, 0.03469848632812500, 0.04302978515625000, 0.01708984375000000, 0.03134155273437500, 0.00362586975097656, 0.00137233734130859, -0.01125335693359375, 0.03698730468750000, -0.04934692382812500, 0.01099395751953125, -0.00606918334960938, 0.01555633544921875, -0.04623413085937500, 0.01968383789062500, -0.02082824707031250, -0.00622177124023438, -0.05239868164062500, -0.07427978515625000, -0.05426025390625000, -0.04934692382812500, -0.03134155273437500, 0.01734924316406250, 0.03845214843750000, 0.00457763671875000, 0.02429199218750000, 0.00039672851562500, -0.02255249023437500, 0.02201843261718750, 0.01086425781250000, 0.04177856445312500, 0.03259277343750000, 0.03555297851562500, 0.00506973266601562, -0.00817871093750000, 0.00444793701171875, -0.04003906250000000, -0.02351379394531250, -0.00153827667236328, -0.01849365234375000, -0.03576660156250000, -0.04962158203125000, -0.02229309082031250, -0.03102111816406250, -0.03530883789062500, -0.02552795410156250, -0.03494262695312500, -0.03536987304687500, 0.01343536376953125, 0.03903198242187500, 0.02281188964843750, 0.02624511718750000, -0.04843139648437500, -0.01933288574218750, -0.03105163574218750, 0.03887939453125000, -0.00692749023437500, -0.02568054199218750, 0.01084899902343750, 0.02145385742187500, -0.04263305664062500, 0.04513549804687500, 0.00377273559570312, -0.02070617675781250, -0.01840209960937500, -0.05142211914062500, -0.04333496093750000, -0.00707626342773438, 0.00419235229492188, 0.00057268142700195, 0.01544952392578125, -0.01520538330078125, -0.03225708007812500, 0.04125976562500000, 0.00782012939453125, -0.00642395019531250, -0.00987243652343750, 0.00498199462890625, -0.00665283203125000, -0.02772521972656250, 0.01916503906250000, 0.00683593750000000, -0.04257202148437500, 0.03912353515625000, -0.03817749023437500, -0.00888061523437500, -0.03515625000000000, -0.03302001953125000, 0.01843261718750000, -0.03399658203125000, 0.01080322265625000, -0.00398635864257812, 0.01824951171875000, -0.01002502441406250, -0.01486968994140625, -0.01208496093750000, 0.01216888427734375, -0.03710937500000000, 0.05297851562500000, 0.03335571289062500, 0.00640106201171875, -0.03723144531250000, 0.03082275390625000, -0.04052734375000000, -0.03857421875000000, -0.02206420898437500, -0.02938842773437500, 0.04351806640625000, 0.04803466796875000, -0.01815795898437500, 0.01544189453125000, 0.00448608398437500, 0.02911376953125000, 0.00506591796875000, -0.01602172851562500, -0.03114318847656250, -0.02430725097656250, 0.04022216796875000, 0.00799560546875000, -0.02381896972656250, -0.04382324218750000, 0.01818847656250000, -0.01806640625000000, -0.03204345703125000, 0.00604248046875000, -0.00790405273437500, 0.04150390625000000, 0.02374267578125000, 0.02038574218750000, 0.01092529296875000, 0.02935791015625000, 0.01403808593750000, 0.02062988281250000, 0.01287841796875000, 0.00869750976562500, 0.02819824218750000, 0.03692626953125000, -0.01190185546875000, 0.01696777343750000, 0.04766845703125000, -0.04373168945312500, -0.03387451171875000, -0.02117919921875000, -0.04656982421875000, 0.00479125976562500, -0.03192138671875000, 0.03710937500000000, 0.04284667968750000, -0.00599288940429688, 0.00698852539062500, -0.01309204101562500, 0.03125000000000000, -0.02076721191406250, 0.04785156250000000, 0.01673889160156250, -0.03210449218750000, 0.04266357421875000, 0.03741455078125000, -0.00799560546875000, 0.02783203125000000, 0.00488281250000000, -0.03698730468750000, -0.04901123046875000, -0.03417968750000000, 0.01428222656250000, -0.00567626953125000, -0.04443359375000000, -0.04772949218750000, -0.03387451171875000, -0.04763793945312500, -0.02424621582031250, 0.02769470214843750, 0.01959228515625000, 0.00238800048828125, 0.02185058593750000, -0.04855346679687500, -0.01788330078125000, 0.01268768310546875, -0.03991699218750000, -0.03579711914062500, -0.00818634033203125, -0.06384277343750000, -0.00979614257812500, -0.04211425781250000, -0.04440307617187500, -0.00439071655273438, -0.01803588867187500, -0.03713989257812500, 0.02491760253906250, 0.02737426757812500, 0.03103637695312500, 0.04718017578125000, 0.03814697265625000, 0.01287841796875000, 0.02282714843750000, 0.02307128906250000, 0.01434326171875000, -0.04656982421875000, 0.02708435058593750, -0.03228759765625000, -0.00922393798828125, -0.02575683593750000, -0.02947998046875000, -0.03265380859375000, -0.00414276123046875, -0.01792907714843750, 0.00649261474609375, 0.00304603576660156, -0.00122547149658203, -0.03131103515625000, 0.00834655761718750, -0.01997375488281250, -0.01535034179687500, 0.03799438476562500, -0.00072860717773438, 0.03016662597656250, -0.00933074951171875, -0.00911712646484375, -0.05004882812500000, -0.04800415039062500, 0.02758789062500000, -0.01220703125000000, 0.04785156250000000, 0.00750732421875000, -0.00479125976562500, -0.04342651367187500, -0.01432037353515625, -0.01730346679687500, 0.02635192871093750, -0.01986694335937500, 0.00907135009765625, 0.00397109985351562, 0.00717926025390625, 0.01856994628906250, -0.00318717956542969, -0.00413513183593750, -0.00411605834960938, 0.03089904785156250, 0.02636718750000000, -0.02198791503906250, 0.03033447265625000, 0.00775146484375000, -0.02398681640625000, 0.02534484863281250, 0.00657272338867188, -0.03787231445312500, 0.03762817382812500, 0.01866149902343750, 0.05480957031250000, 0.00604248046875000, 0.04541015625000000, -0.01953125000000000, 0.02752685546875000, -0.01966857910156250, -0.04388427734375000, 0.01940917968750000, -0.01881408691406250, -0.01195526123046875, 0.01049804687500000, 0.00531768798828125, 0.03158569335937500, 0.02531433105468750, 0.04141235351562500, 0.02615356445312500, -0.02496337890625000, -0.03671264648437500, 0.00403594970703125, 0.02220153808593750, 0.03900146484375000, -0.00988769531250000, 0.00885009765625000, -0.00905609130859375, 0.02845764160156250, 0.05023193359375000, 0.01625061035156250, 0.03225708007812500, 0.02166748046875000, 0.03546142578125000, 0.04205322265625000, -0.02020263671875000, -0.04681396484375000, -0.03028869628906250, 0.00197792053222656, 0.00801086425781250, -0.01463317871093750, -0.00084018707275391, 0.04177856445312500, -0.00354194641113281, 0.01664733886718750, -0.03448486328125000, 0.03292846679687500, 0.00965881347656250, 0.01779174804687500, 0.03457641601562500, -0.00572967529296875, -0.00760269165039062, 0.04312133789062500, -0.01692199707031250, 0.03793334960937500, 0.03524780273437500, 0.00903320312500000, 0.02384948730468750, 0.05569458007812500, 0.06842041015625000, 0.04528808593750000, -0.02827453613281250, -0.03466796875000000, 0.02313232421875000, -0.04031372070312500, -0.00664901733398438, 0.02505493164062500, 0.01570129394531250, 0.00007337331771851, -0.02748107910156250, 0.01626586914062500, -0.02157592773437500, 0.00184249877929688, 0.04129028320312500, 0.01736450195312500, -0.00429534912109375, 0.02001953125000000, -0.01313781738281250, 0.00738143920898438, 0.01864624023437500, 0.02174377441406250, -0.01657104492187500, 0.00352859497070312, 0.03099060058593750, 0.01284790039062500, 0.04019165039062500, 0.06671142578125000, 0.06536865234375000, 0.06225585937500000, 0.01927185058593750, 0.00399780273437500, 0.00101280212402344, -0.01676940917968750, 0.02665710449218750, -0.01367187500000000, -0.02847290039062500, 0.02119445800781250, -0.01503753662109375, 0.00789642333984375, 0.01722717285156250, 0.01792907714843750, 0.00417709350585938, 0.00782012939453125, 0.01856994628906250, 0.04238891601562500, 0.00120925903320312, 0.04718017578125000, 0.00757980346679688, 0.04351806640625000, 0.03634643554687500, 0.02540588378906250, 0.02850341796875000, 0.02217102050781250, 0.06311035156250000, 0.06738281250000000, 0.06793212890625000, 0.03317260742187500, 0.00246047973632812, 0.04980468750000000, -0.03942871093750000, -0.05099487304687500, -0.03308105468750000, -0.02001953125000000, -0.01898193359375000, -0.02252197265625000, -0.01154327392578125, 0.03793334960937500, -0.00548934936523438, -0.01596069335937500, -0.00622558593750000, 0.00295829772949219, -0.00457000732421875, -0.03277587890625000, -0.00059223175048828, 0.00384140014648438, -0.03201293945312500, 0.00129413604736328, -0.02523803710937500, 0.02886962890625000, -0.03826904296875000, -0.03536987304687500, 0.00207519531250000, 0.06512451171875000, 0.07391357421875000, -0.00841522216796875, -0.00170326232910156, 0.03875732421875000, -0.03077697753906250, 0.02877807617187500, 0.01410675048828125, -0.03195190429687500, -0.03198242187500000, -0.01034545898437500, -0.04556274414062500, -0.03509521484375000, -0.01586914062500000, 0.00000137090682983, 0.01404571533203125, 0.01354980468750000, 0.01611328125000000, -0.03244018554687500, -0.04348754882812500, 0.01089477539062500, -0.05526733398437500, -0.04867553710937500, -0.03472900390625000, -0.05151367187500000, -0.04116821289062500, -0.05990600585937500, -0.03268432617187500, -0.04702758789062500, -0.03347778320312500, -0.02194213867187500, 0.00136184692382812, -0.03289794921875000, 0.00883483886718750, -0.01951599121093750, -0.03890991210937500, 0.02276611328125000, 0.00203323364257812, 0.03314208984375000, -0.01256561279296875, 0.01966857910156250, -0.00118350982666016, 0.02125549316406250, -0.03332519531250000, 0.00197982788085938, 0.04580688476562500, -0.00355911254882812, -0.03887939453125000, -0.00257110595703125, -0.02507019042968750, -0.05117797851562500, -0.04382324218750000, -0.05627441406250000, -0.05383300781250000, -0.06402587890625000, -0.05941772460937500, -0.03338623046875000, 0.02456665039062500, 0.05435180664062500, 0.03106689453125000, 0.04724121093750000, -0.05178833007812500, -0.02496337890625000, -0.02194213867187500, 0.01991271972656250, -0.04013061523437500, 0.01110839843750000, 0.01361846923828125, -0.01199340820312500, -0.03771972656250000, 0.03750610351562500, 0.00318717956542969, 0.05627441406250000, -0.01132965087890625, -0.01279449462890625, 0.02738952636718750, -0.03887939453125000, -0.03515625000000000, 0.00627517700195312, -0.03854370117187500, -0.04867553710937500, -0.04434204101562500, -0.05249023437500000, -0.03860473632812500, -0.06213378906250000, -0.03192138671875000, -0.02815246582031250, 0.02453613281250000, 0.01544189453125000, 0.04608154296875000, 0.01074981689453125, 0.00136756896972656, 0.01555633544921875, 0.01541137695312500, -0.03466796875000000, 0.02592468261718750, -0.03536987304687500, 0.01325988769531250, 0.03845214843750000, 0.02163696289062500, -0.00285911560058594, 0.00749588012695312, -0.03048706054687500, -0.01243591308593750, -0.03430175781250000, 0.00016117095947266, -0.00605010986328125, -0.01457977294921875, -0.01467132568359375, -0.02215576171875000, -0.02000427246093750, -0.00955200195312500, -0.02487182617187500, -0.03115844726562500, -0.00776290893554688, 0.04104614257812500, -0.00913238525390625, -0.04135131835937500, 0.01560974121093750, -0.05838012695312500, -0.01651000976562500, -0.00656890869140625, -0.01576232910156250, 0.03080749511718750, 0.02561950683593750, 0.02410888671875000, 0.04498291015625000, -0.01873779296875000, -0.02426147460937500, 0.03588867187500000, -0.02731323242187500, -0.01914978027343750, -0.03436279296875000, -0.04687500000000000, -0.01162719726562500, -0.03610229492187500, 0.03598022460937500, -0.01879882812500000, 0.05340576171875000, -0.02378845214843750, 0.04809570312500000, -0.04299926757812500, 0.02400207519531250, -0.03863525390625000, -0.00692749023437500, -0.04092407226562500, 0.01896667480468750, -0.02514648437500000, -0.02865600585937500, 0.02041625976562500, 0.02307128906250000, -0.03323364257812500, -0.02941894531250000, 0.00508499145507812, -0.00810241699218750, 0.02014160156250000, 0.03512573242187500, -0.02601623535156250, -0.03787231445312500, -0.01725769042968750, -0.00991821289062500, -0.01045989990234375, 0.00334930419921875, 0.01315307617187500, -0.00115108489990234, 0.02365112304687500, -0.02432250976562500, 0.03363037109375000, 0.04092407226562500, -0.01201629638671875, -0.04577636718750000, 0.00571823120117188, -0.04324340820312500, -0.03082275390625000, 0.01916503906250000, 0.01504516601562500, -0.06347656250000000, -0.01817321777343750, -0.06262207031250000, -0.02105712890625000, -0.06198120117187500, -0.03967285156250000, -0.04263305664062500, -0.00402832031250000, -0.04095458984375000, -0.00355720520019531, -0.01198577880859375, -0.03286743164062500, 0.00683975219726562, -0.04541015625000000, 0.02569580078125000, 0.01638793945312500, 0.01036071777343750, 0.02619934082031250, 0.03790283203125000, 0.06207275390625000, 0.04220581054687500, -0.04840087890625000, 0.00589370727539062, -0.03790283203125000, 0.02935791015625000, 0.02539062500000000, -0.01766967773437500, 0.04751586914062500, -0.00067901611328125, -0.03988647460937500, -0.01140594482421875, -0.04110717773437500, -0.06228637695312500, -0.06280517578125000, -0.06341552734375000, -0.06347656250000000, -0.06341552734375000, -0.03265380859375000, -0.06311035156250000, -0.01841735839843750, -0.02430725097656250, 0.00511550903320312, 0.02001953125000000, 0.04864501953125000, 0.02507019042968750, 0.03120422363281250, 0.06121826171875000, -0.02908325195312500, 0.02787780761718750, -0.03961181640625000, -0.02574157714843750, -0.04635620117187500, 0.04589843750000000, -0.04931640625000000, -0.02114868164062500, 0.05264282226562500, 0.03363037109375000, 0.02897644042968750, 0.01606750488281250, -0.01631164550781250, -0.03906250000000000, -0.06274414062500000, -0.06353759765625000, -0.06256103515625000, -0.04855346679687500, -0.06353759765625000, -0.02366638183593750, -0.04110717773437500, 0.01467132568359375, 0.04281616210937500, 0.00019395351409912, 0.01815795898437500, 0.00477218627929688, 0.01141357421875000, 0.01461029052734375, -0.01237487792968750, -0.01016235351562500, -0.06231689453125000, -0.05114746093750000, -0.01564025878906250, -0.04821777343750000, 0.01889038085937500, 0.05142211914062500, 0.01296997070312500, 0.05435180664062500, 0.02926635742187500, 0.04339599609375000, 0.00912475585937500, 0.04769897460937500, -0.00012576580047607, -0.02232360839843750, -0.03436279296875000, -0.04113769531250000, -0.01220703125000000, -0.00250434875488281, -0.02593994140625000, 0.02096557617187500, -0.00569534301757812, 0.03170776367187500, -0.02679443359375000, 0.03256225585937500, 0.01272583007812500, 0.02989196777343750, 0.02647399902343750, 0.01889038085937500, -0.00282287597656250, -0.01947021484375000, -0.03970336914062500, 0.03662109375000000, 0.01615905761718750, 0.04034423828125000, 0.03292846679687500, 0.00890350341796875, 0.05108642578125000, 0.03189086914062500, 0.00013160705566406, 0.00426101684570312, 0.03143310546875000, 0.02549743652343750, 0.03735351562500000, 0.03210449218750000, 0.02165222167968750, 0.02134704589843750, -0.01693725585937500, -0.01057434082031250, 0.03408813476562500, 0.00830078125000000, 0.00120830535888672, -0.00046944618225098, -0.01748657226562500, 0.01126098632812500, 0.02227783203125000, 0.01837158203125000, -0.00984954833984375, -0.00038051605224609, 0.02471923828125000, 0.00115966796875000, 0.02111816406250000, 0.04370117187500000, 0.03399658203125000, 0.03866577148437500, 0.04910278320312500, 0.01892089843750000, 0.00577545166015625, 0.03738403320312500, 0.02531433105468750, 0.01167297363281250, 0.05062866210937500, 0.02058410644531250, 0.00582122802734375, 0.00985717773437500, 0.02740478515625000, -0.01222991943359375, -0.00620651245117188, -0.01568603515625000, 0.02487182617187500, -0.00728225708007812, -0.00939941406250000, -0.02957153320312500, -0.00617599487304688, -0.04287719726562500, -0.03948974609375000, -0.02749633789062500, -0.02088928222656250, 0.04284667968750000, 0.00781250000000000, -0.02009582519531250, 0.03689575195312500, 0.05285644531250000, -0.03265380859375000, -0.02436828613281250, -0.03939819335937500, 0.04473876953125000, -0.00537872314453125, -0.01718139648437500, -0.00348091125488281, 0.03512573242187500, 0.04187011718750000, 0.01133728027343750, -0.00104141235351562, 0.04852294921875000, -0.03802490234375000, -0.00825500488281250, 0.02706909179687500, -0.04965209960937500, 0.03646850585937500, 0.05554199218750000, -0.01559448242187500, -0.03738403320312500, 0.02780151367187500, -0.04394531250000000, 0.04602050781250000, -0.01846313476562500, -0.03787231445312500, 0.05078125000000000, 0.00225067138671875, 0.03518676757812500, 0.02934265136718750, 0.04370117187500000, 0.03552246093750000, 0.00799560546875000, 0.01666259765625000, 0.05599975585937500, 0.03125000000000000, 0.04266357421875000, -0.03271484375000000, 0.00907135009765625, 0.03063964843750000, 0.00535202026367188, 0.03295898437500000, -0.02172851562500000, 0.01471710205078125, -0.00441360473632812, -0.04730224609375000, 0.01873779296875000, -0.01094055175781250, -0.04888916015625000, -0.00920104980468750, -0.02352905273437500, 0.02655029296875000, -0.03253173828125000, -0.03494262695312500, -0.02154541015625000, 0.03213500976562500, 0.00758361816406250, 0.06207275390625000, 0.01355743408203125, 0.04098510742187500, 0.00702667236328125, 0.04113769531250000, -0.00394439697265625, 0.00623321533203125, 0.03710937500000000, 0.03689575195312500, -0.01985168457031250, 0.03967285156250000, -0.00236511230468750, 0.03067016601562500, 0.02877807617187500, -0.01646423339843750, 0.02389526367187500, 0.01352691650390625, -0.00390434265136719, 0.04229736328125000, -0.04797363281250000, -0.03213500976562500, 0.04547119140625000, 0.02099609375000000, 0.04541015625000000, 0.01837158203125000, -0.02015686035156250, 0.03677368164062500, -0.01160430908203125, 0.02920532226562500, -0.01277160644531250, 0.01237487792968750, -0.01727294921875000, 0.02639770507812500, 0.00796508789062500, -0.01812744140625000, 0.03262329101562500, 0.01928710937500000, 0.02453613281250000, -0.00121212005615234, -0.01157379150390625, -0.00500869750976562, -0.02853393554687500, 0.01806640625000000, 0.05905151367187500, -0.00081157684326172, 0.01263427734375000, 0.00233268737792969, 0.00665283203125000, 0.01385498046875000, -0.03601074218750000, -0.00967407226562500, -0.00750732421875000, 0.01776123046875000, -0.04479980468750000, 0.02539062500000000, -0.02952575683593750, 0.03077697753906250, 0.01449584960937500, -0.04946899414062500, -0.06042480468750000, -0.06445312500000000, -0.04251098632812500, -0.03927612304687500, -0.04861450195312500, -0.03509521484375000, -0.03109741210937500, 0.00884246826171875, -0.01535034179687500, 0.05059814453125000, -0.00621414184570312, 0.02940368652343750, 0.01556396484375000, 0.04187011718750000, 0.02244567871093750, 0.02197265625000000, -0.02050781250000000, 0.02618408203125000, -0.04080200195312500, 0.03082275390625000, -0.04608154296875000, 0.00701904296875000, -0.00936889648437500, 0.04302978515625000, -0.03649902343750000, 0.02212524414062500, 0.00586318969726562, 0.01479339599609375, 0.04397583007812500, -0.01351928710937500, 0.04055786132812500, -0.01071166992187500, -0.03555297851562500, -0.02346801757812500, -0.02555847167968750, -0.01458740234375000, -0.04016113281250000, 0.04248046875000000, -0.00620269775390625, -0.04547119140625000, 0.02870178222656250, 0.04327392578125000, -0.01846313476562500, 0.01806640625000000, -0.01806640625000000, 0.00262451171875000, 0.03082275390625000, 0.03887939453125000, 0.02459716796875000, 0.01043701171875000, 0.04296875000000000, -0.03875732421875000, 0.02539062500000000, -0.03649902343750000, 0.00878906250000000, -0.00381469726562500, 0.03942871093750000, -0.01220703125000000, 0.01074218750000000, 0.03173828125000000, 0.04248046875000000, -0.01678466796875000, -0.02850341796875000, 0.03222656250000000, 0.04101562500000000, 0.04364013671875000, -0.00332641601562500, 0.03613281250000000, -0.03964233398437500, 0.03173828125000000, -0.03387451171875000, -0.01991271972656250, 0.00762939453125000, -0.02938842773437500, -0.03836059570312500, 0.04913330078125000, 0.00115966796875000, -0.02215576171875000, -0.00048828125000000, 0.04150390625000000, -0.03289794921875000, 0.00234985351562500, 0.01007080078125000, 0.00155639648437500, 0.04534912109375000, -0.03240966796875000, -0.01502990722656250, -0.03332519531250000, 0.01812744140625000, 0.00347137451171875, 0.03097534179687500, 0.04623413085937500, 0.01075744628906250, -0.04147338867187500, 0.03610229492187500, 0.03604125976562500, -0.00920867919921875, -0.03787231445312500, 0.02282714843750000, 0.00741577148437500, -0.02996826171875000, -0.03056335449218750, 0.03436279296875000, 0.01983642578125000, 0.04010009765625000, -0.01473999023437500, 0.02618408203125000, -0.01531982421875000, -0.01651000976562500, -0.01629638671875000, -0.05099487304687500, -0.02307128906250000, -0.05258178710937500, -0.00035643577575684, -0.01521301269531250, -0.01594543457031250, 0.00588989257812500, -0.00530242919921875, -0.06292724609375000, -0.04501342773437500, -0.03068542480468750, -0.02915954589843750, -0.00429153442382812, -0.03945922851562500, -0.03457641601562500, -0.01106262207031250, -0.01391601562500000, 0.01403808593750000, 0.02755737304687500, 0.01989746093750000, -0.01727294921875000, 0.02569580078125000, -0.03027343750000000, -0.01522827148437500, 0.02642822265625000, 0.02267456054687500, 0.01847839355468750, -0.05651855468750000, 0.00131702423095703, -0.03680419921875000, 0.00901031494140625, -0.05929565429687500, -0.04626464843750000, -0.02618408203125000, -0.00146865844726562, -0.00084686279296875, -0.04895019531250000, -0.02520751953125000, 0.01974487304687500, -0.03775024414062500, -0.05621337890625000, -0.01523590087890625, -0.00079917907714844, -0.06494140625000000, -0.03646850585937500, 0.01637268066406250, 0.01457977294921875, 0.01922607421875000, 0.00701904296875000, 0.04937744140625000, -0.02958679199218750, 0.03894042968750000, 0.00790405273437500, 0.04916381835937500, -0.05004882812500000, -0.01357269287109375, 0.00026750564575195, -0.03277587890625000, -0.03604125976562500, -0.03411865234375000, -0.00644302368164062, -0.00258064270019531, -0.01118469238281250, 0.02127075195312500, 0.02816772460937500, -0.01846313476562500, -0.00798797607421875, 0.00874328613281250, -0.03472900390625000, 0.00036621093750000, -0.03988647460937500, -0.03381347656250000, -0.02574157714843750, -0.04980468750000000, -0.04788208007812500, -0.00262451171875000, 0.00524139404296875, 0.03375244140625000, -0.00674438476562500, -0.03631591796875000, -0.02343750000000000, -0.03057861328125000, 0.03076171875000000, -0.04321289062500000, -0.06127929687500000, -0.01081848144531250, 0.00449371337890625, -0.05142211914062500, -0.03308105468750000, -0.02912902832031250, -0.00717926025390625, 0.01402282714843750, -0.02005004882812500, 0.02229309082031250, 0.03262329101562500, -0.01514434814453125, 0.04141235351562500, 0.03857421875000000, 0.02203369140625000, -0.00540924072265625, -0.01757812500000000, -0.01542663574218750, -0.05142211914062500, 0.00987243652343750, -0.01393890380859375, 0.02221679687500000, 0.00430297851562500, -0.02519226074218750, 0.05151367187500000, 0.06143188476562500, 0.04745483398437500, 0.02284240722656250, 0.04113769531250000, -0.01936340332031250, 0.04379272460937500, -0.02551269531250000, -0.01948547363281250, 0.01282501220703125, -0.00965881347656250, 0.03305053710937500, -0.03579711914062500, 0.00487518310546875, 0.02764892578125000, 0.00582504272460938, -0.01276397705078125, 0.01013183593750000, -0.03768920898437500, 0.04501342773437500, 0.03628540039062500, -0.03479003906250000, -0.01965332031250000, -0.01679992675781250, -0.02284240722656250, -0.01252746582031250, -0.02499389648437500, 0.00923156738281250, -0.03494262695312500, 0.05828857421875000, 0.00520324707031250, 0.03036499023437500, 0.04016113281250000, 0.03311157226562500, 0.02156066894531250, 0.04193115234375000, 0.05895996093750000, 0.00255203247070312, 0.02217102050781250, 0.01108551025390625, 0.01811218261718750, -0.01953125000000000, -0.00144958496093750, -0.00900268554687500, 0.03927612304687500, 0.03561401367187500, 0.00001996755599976, -0.01608276367187500, 0.02316284179687500, -0.00666427612304688, -0.03695678710937500, -0.06118774414062500, -0.03979492187500000, -0.03897094726562500, -0.01279449462890625, 0.05130004882812500, 0.00968170166015625, 0.05087280273437500, 0.04064941406250000, 0.02464294433593750, 0.02919006347656250, 0.01479339599609375, 0.06027221679687500, 0.05453491210937500, 0.00384712219238281, 0.01052856445312500, 0.03112792968750000, -0.02009582519531250, 0.02915954589843750, 0.05279541015625000, -0.01205444335937500, 0.04208374023437500, 0.04162597656250000, 0.01708984375000000, -0.01600646972656250, 0.00531387329101562, 0.04101562500000000, -0.03056335449218750, -0.03131103515625000, -0.02789306640625000, -0.03686523437500000, -0.00779724121093750, -0.03378295898437500, -0.03985595703125000, 0.05352783203125000, 0.04403686523437500, -0.03384399414062500, 0.02479553222656250, 0.01982116699218750, 0.01206207275390625, -0.01184082031250000, -0.01957702636718750, 0.03427124023437500, 0.01631164550781250, 0.05941772460937500, 0.02029418945312500, 0.01635742187500000, 0.05813598632812500, 0.03994750976562500, 0.05548095703125000, 0.01525878906250000, 0.01261901855468750, 0.03604125976562500, 0.04660034179687500, 0.01045227050781250, 0.03955078125000000, -0.03123474121093750, -0.02861022949218750, -0.06420898437500000, -0.03494262695312500, -0.04049682617187500, -0.03479003906250000, 0.03976440429687500, 0.06161499023437500, 0.05657958984375000, 0.02598571777343750, 0.00933837890625000, 0.03390502929687500, -0.02293395996093750, 0.03543090820312500, -0.01149749755859375, 0.02659606933593750, -0.01170349121093750, 0.03292846679687500, 0.03436279296875000, 0.01655578613281250, 0.06225585937500000, 0.05221557617187500, 0.03433227539062500, 0.06250000000000000, 0.05493164062500000, -0.01670837402343750, 0.02903747558593750, 0.00970458984375000, -0.02972412109375000, 0.00623703002929688, -0.03479003906250000, -0.01023101806640625, 0.00961303710937500, 0.00963592529296875, 0.04013061523437500, 0.00067853927612305, 0.03866577148437500, -0.00200653076171875, -0.02169799804687500, 0.00635147094726562, 0.03790283203125000, -0.00689697265625000, -0.01158142089843750, 0.02081298828125000, -0.00196456909179688, 0.00721740722656250, -0.03143310546875000, -0.03622436523437500, 0.04016113281250000, 0.02139282226562500, 0.00620651245117188, 0.00111007690429688, -0.00357627868652344, 0.03472900390625000, 0.03439331054687500, -0.02159118652343750, 0.02566528320312500, -0.03463745117187500, -0.02476501464843750, 0.02648925781250000, -0.01081848144531250, 0.01911926269531250, 0.06506347656250000, 0.01095581054687500, 0.01545715332031250, -0.02806091308593750, -0.00875854492187500, -0.03247070312500000, -0.03485107421875000, -0.01625061035156250, -0.00352096557617188, -0.01001739501953125, -0.03637695312500000, -0.06311035156250000, -0.06378173828125000, -0.03567504882812500, -0.01860046386718750, -0.00745391845703125, 0.00939178466796875, -0.02809143066406250, 0.02201843261718750, -0.00694274902343750, -0.00679397583007812, 0.01756286621093750, 0.00447845458984375, -0.04666137695312500, 0.04296875000000000, -0.03622436523437500, 0.01281738281250000, -0.02117919921875000, 0.00638961791992188, -0.01195526123046875, -0.01326751708984375, -0.00363349914550781, -0.03089904785156250, 0.04144287109375000, -0.00506591796875000, -0.02478027343750000, -0.00704193115234375, -0.00759124755859375, -0.04061889648437500, -0.06256103515625000, -0.06579589843750000, -0.05877685546875000, 0.01245880126953125, -0.00106525421142578, -0.02108764648437500, -0.02757263183593750, -0.03105163574218750, 0.00884246826171875, 0.02281188964843750, 0.01638793945312500, 0.00933074951171875, 0.04293823242187500, 0.00675201416015625, -0.01586914062500000, 0.04803466796875000, 0.04525756835937500, 0.05014038085937500, 0.02906799316406250, -0.04629516601562500, -0.03262329101562500, -0.02072143554687500, 0.04556274414062500, -0.02087402343750000, 0.02777099609375000, 0.03607177734375000, -0.05664062500000000, -0.06250000000000000, -0.06250000000000000, -0.03198242187500000, -0.01184844970703125, -0.04589843750000000, -0.03283691406250000, -0.01204681396484375, 0.02461242675781250, -0.01966857910156250, 0.03576660156250000, 0.02267456054687500, -0.00289344787597656, 0.05294799804687500, 0.03631591796875000, 0.04934692382812500, -0.03045654296875000, -0.02459716796875000, -0.01760864257812500, 0.02200317382812500, 0.02055358886718750, -0.01431274414062500, 0.03555297851562500, 0.00751495361328125, -0.03074645996093750, -0.01771545410156250, -0.02787780761718750, -0.03070068359375000, -0.04959106445312500, -0.06243896484375000, -0.06268310546875000, -0.04977416992187500, 0.00101375579833984, -0.01622009277343750, 0.02255249023437500, 0.00535583496093750, -0.01638793945312500, 0.04241943359375000, 0.00192546844482422, 0.04858398437500000, 0.03869628906250000, 0.00180625915527344, -0.00266647338867188, 0.04376220703125000, -0.04287719726562500, 0.00732421875000000, 0.02326965332031250, 0.00472259521484375, -0.01078796386718750, -0.00558471679687500, -0.01654052734375000, -0.01766967773437500, 0.02580261230468750, 0.01245880126953125, 0.04327392578125000, -0.02113342285156250, -0.04061889648437500, -0.06256103515625000, -0.02117919921875000, -0.03790283203125000, -0.01672363281250000, -0.03057861328125000, 0.01593017578125000, -0.03353881835937500, 0.00769424438476562, 0.02702331542968750, 0.03878784179687500, -0.03344726562500000, 0.00382995605468750, -0.00582122802734375, -0.02711486816406250, -0.00862121582031250, -0.00954437255859375, -0.01416015625000000, 0.02294921875000000, 0.01227569580078125, 0.01233673095703125, -0.04141235351562500, 0.02810668945312500, -0.00030875205993652, 0.02395629882812500, -0.02400207519531250, 0.00730514526367188, -0.02728271484375000, -0.03900146484375000, -0.03414916992187500, -0.02572631835937500, 0.01588439941406250, -0.04077148437500000, 0.01260375976562500, -0.01554107666015625, 0.03842163085937500, -0.00852203369140625, -0.04028320312500000, -0.02787780761718750, 0.03500366210937500, 0.03250122070312500, 0.00930786132812500, -0.02215576171875000, 0.04241943359375000, 0.03259277343750000, 0.00497436523437500, 0.02789306640625000, -0.04809570312500000, -0.03552246093750000, 0.00673294067382812, 0.00513458251953125, -0.04135131835937500, 0.02661132812500000, -0.00925445556640625, -0.00525665283203125, 0.03262329101562500, -0.05453491210937500, -0.03207397460937500, -0.01710510253906250, 0.00357055664062500, -0.02882385253906250, 0.00848388671875000, -0.02304077148437500, 0.01073455810546875, -0.04202270507812500, 0.00051307678222656, -0.03222656250000000, -0.00788879394531250, 0.02360534667968750, -0.03277587890625000, -0.00322151184082031, -0.00062847137451172, 0.02178955078125000, -0.03671264648437500, 0.01876831054687500, 0.04110717773437500, -0.01494598388671875, -0.00031137466430664, 0.02934265136718750, -0.00684356689453125, -0.04479980468750000, 0.01396179199218750, -0.04071044921875000, 0.04742431640625000, -0.03979492187500000, -0.01847839355468750, 0.00502395629882812, 0.00903320312500000, -0.03338623046875000, -0.03723144531250000, -0.00878143310546875, -0.03955078125000000, 0.03558349609375000, -0.03768920898437500, 0.01780700683593750, -0.00534820556640625, -0.04263305664062500, 0.04043579101562500, 0.04272460937500000, -0.02772521972656250, 0.02416992187500000, 0.03570556640625000, 0.00435256958007812, -0.00381088256835938, -0.04934692382812500, -0.00269508361816406, -0.04373168945312500, 0.02778625488281250, -0.00759887695312500, -0.01233673095703125, 0.00285339355468750, -0.00127983093261719, 0.03149414062500000, 0.02934265136718750, 0.01640319824218750, -0.05163574218750000, 0.03359985351562500, -0.04205322265625000, -0.04028320312500000, 0.01122283935546875, -0.04251098632812500, -0.03842163085937500, -0.03074645996093750, -0.05297851562500000, 0.03073120117187500, -0.03311157226562500, -0.03515625000000000, -0.03991699218750000, -0.01083374023437500, 0.00518798828125000, -0.00336456298828125, 0.01226806640625000, 0.00864410400390625, -0.02835083007812500, -0.00739288330078125, -0.03250122070312500, -0.02763366699218750, -0.03433227539062500, 0.02322387695312500, 0.01008605957031250, 0.02198791503906250, 0.00458526611328125, 0.04840087890625000, -0.00381660461425781, -0.00836181640625000, -0.01737976074218750, -0.05487060546875000, -0.03561401367187500, -0.03359985351562500, -0.03707885742187500, -0.04147338867187500, -0.00160217285156250, -0.06170654296875000, -0.03381347656250000, 0.00367736816406250, 0.01303100585937500, 0.00958251953125000, 0.02380371093750000, 0.02798461914062500, 0.00080108642578125, -0.04827880859375000, -0.05712890625000000, -0.03234863281250000, -0.02136230468750000, 0.00443267822265625, -0.00008821487426758, 0.01705932617187500, -0.01292419433593750, 0.00746536254882812, 0.03024291992187500, 0.00210571289062500, 0.04016113281250000, -0.01655578613281250, 0.03985595703125000, -0.03619384765625000, -0.00292968750000000, -0.04370117187500000, -0.03958129882812500, -0.02703857421875000, -0.04925537109375000, -0.03649902343750000, 0.03356933593750000, -0.00030994415283203, -0.00700378417968750, 0.01306152343750000, -0.04003906250000000, -0.01434326171875000, -0.05029296875000000, -0.05960083007812500, -0.04040527343750000, 0.03363037109375000, -0.00494384765625000, 0.01795959472656250, -0.00692749023437500, 0.00536727905273438, 0.03076171875000000, 0.00240135192871094, 0.02575683593750000, -0.00609207153320312, 0.04357910156250000, 0.01197814941406250, -0.01112365722656250, -0.01480865478515625, -0.05966186523437500, -0.00431060791015625, -0.06500244140625000, -0.00467681884765625, -0.06167602539062500, -0.03491210937500000, -0.01606750488281250, -0.02113342285156250, 0.04513549804687500, -0.04696655273437500, 0.00848388671875000, -0.04089355468750000, 0.04183959960937500, 0.00941467285156250, 0.01270294189453125, 0.04132080078125000, -0.01187896728515625, 0.03399658203125000, -0.05252075195312500, -0.00492477416992188, -0.02165222167968750, -0.01551818847656250, -0.01004791259765625, -0.02902221679687500, 0.01922607421875000, -0.00769424438476562, 0.03533935546875000, 0.03137207031250000, -0.00843811035156250, -0.01870727539062500, -0.05288696289062500, -0.01302337646484375, -0.02842712402343750, -0.02912902832031250, -0.03494262695312500, 0.03460693359375000, -0.02079772949218750, 0.04577636718750000, 0.04595947265625000, -0.04959106445312500, 0.02561950683593750, 0.04440307617187500, 0.06201171875000000, 0.02717590332031250, 0.02760314941406250, 0.03065490722656250, 0.02345275878906250, 0.02685546875000000, 0.01308441162109375, -0.00552749633789062, 0.03259277343750000, 0.00986480712890625, 0.04095458984375000, 0.04244995117187500, 0.00545501708984375, 0.02342224121093750, -0.00689315795898438, -0.01943969726562500, 0.02600097656250000, 0.00392913818359375, -0.03991699218750000, -0.00971984863281250, 0.03961181640625000, 0.01904296875000000, -0.00097656250000000, 0.02813720703125000, -0.01455688476562500, 0.04034423828125000, -0.04772949218750000, 0.01574707031250000, -0.03201293945312500, 0.02497863769531250, -0.02072143554687500, -0.00023639202117920, 0.03475952148437500, -0.01771545410156250, 0.01394653320312500, 0.02568054199218750, 0.00352096557617188, 0.03851318359375000, 0.02217102050781250, 0.01570129394531250, 0.06335449218750000, 0.05108642578125000, 0.06457519531250000, 0.02360534667968750, 0.02842712402343750, -0.01326751708984375, 0.02067565917968750, -0.01690673828125000, -0.04266357421875000, 0.00302124023437500, -0.03533935546875000, 0.00408935546875000, 0.01190185546875000, -0.01531982421875000, -0.00616455078125000, 0.04394531250000000, -0.01522827148437500, 0.01318359375000000, -0.04907226562500000, -0.00330924987792969, 0.01013183593750000, 0.03683471679687500, 0.04119873046875000, -0.03778076171875000, 0.00917053222656250, -0.01284027099609375, 0.02626037597656250, 0.01015472412109375, 0.03713989257812500, 0.02388000488281250, 0.03820800781250000, 0.00526428222656250, 0.00342178344726562, 0.03201293945312500, 0.04763793945312500, 0.01934814453125000, 0.04229736328125000, 0.04785156250000000, 0.03082275390625000, -0.03445434570312500, 0.03924560546875000, -0.04373168945312500, -0.03114318847656250, 0.03448486328125000, 0.02960205078125000, 0.01385498046875000, -0.00839233398437500, -0.04608154296875000, -0.00164794921875000, -0.03955078125000000, -0.03622436523437500, 0.04089355468750000, 0.02148437500000000, -0.03286743164062500, 0.02261352539062500, 0.01181030273437500, -0.02343750000000000, 0.01983642578125000, -0.04687500000000000, -0.04696655273437500, 0.03094482421875000, -0.01296997070312500, -0.03085327148437500, -0.02861022949218750, 0.04168701171875000, 0.03503417968750000, 0.02740478515625000, 0.04150390625000000, 0.03796386718750000, 0.00408935546875000, -0.01884460449218750, 0.02642822265625000, 0.03796386718750000, -0.01971435546875000, 0.00949859619140625, 0.01191711425781250, -0.03573608398437500, 0.03814697265625000, 0.02650451660156250, 0.01554870605468750, 0.03237915039062500, 0.02314758300781250, -0.04754638671875000, 0.01686096191406250, -0.06579589843750000, 0.00575637817382812, -0.01074218750000000, 0.03472900390625000, -0.02268981933593750, -0.01847839355468750, 0.02386474609375000, 0.02587890625000000, -0.03308105468750000, 0.03125000000000000, -0.04382324218750000, 0.02886962890625000, 0.04296875000000000, -0.00860595703125000, -0.03796386718750000, 0.00030517578125000, 0.04162597656250000, -0.00093364715576172, 0.00111007690429688, 0.04541015625000000, -0.01268005371093750, 0.04980468750000000, 0.04107666015625000, 0.03976440429687500, -0.01910400390625000, 0.01503753662109375, -0.04071044921875000, 0.03210449218750000, -0.01289367675781250, 0.01432037353515625, 0.01582336425781250, 0.01652526855468750, 0.04998779296875000, -0.01499176025390625, 0.03125000000000000, 0.04132080078125000, -0.02624511718750000, -0.03244018554687500, -0.01190185546875000, 0.02838134765625000, -0.03494262695312500, -0.00750732421875000, 0.00196266174316406, -0.00737762451171875, -0.04971313476562500, 0.02862548828125000, 0.05792236328125000, 0.04733276367187500, 0.02587890625000000, 0.03004455566406250, -0.03662109375000000, 0.03405761718750000, 0.03112792968750000, 0.02053833007812500, 0.02137756347656250, 0.03762817382812500, 0.01100158691406250, 0.00733947753906250, 0.03430175781250000, 0.06146240234375000, 0.03134155273437500, 0.06372070312500000, 0.06744384765625000, 0.02845764160156250, 0.00144004821777344, 0.02322387695312500, 0.00408935546875000, -0.04040527343750000, -0.04159545898437500, 0.04791259765625000, -0.04464721679687500, -0.02160644531250000, -0.01549530029296875, 0.03256225585937500, 0.03613281250000000, 0.03652954101562500, -0.02972412109375000, 0.01405334472656250, 0.03044128417968750, 0.00162887573242188, -0.03903198242187500, 0.00426101684570312, -0.00517654418945312, 0.00081062316894531, 0.01028442382812500, 0.03097534179687500, 0.01420593261718750, 0.03631591796875000, 0.02276611328125000, 0.04415893554687500, 0.02365112304687500, 0.02395629882812500, -0.04272460937500000, 0.00844573974609375, 0.00340080261230469, -0.04861450195312500, 0.02459716796875000, -0.03231811523437500, 0.00397491455078125, 0.00157070159912109, -0.00579071044921875, 0.00154113769531250, -0.03112792968750000, 0.00092220306396484, -0.04226684570312500, 0.01705932617187500, 0.02490234375000000, -0.01965332031250000, -0.01887512207031250, -0.04959106445312500, -0.02716064453125000, -0.06027221679687500, -0.05197143554687500, -0.03738403320312500, -0.01676940917968750, -0.00341606140136719, 0.03007507324218750, -0.00112628936767578, -0.00380516052246094, 0.02047729492187500, 0.03344726562500000, 0.03637695312500000, 0.01828002929687500, -0.03405761718750000, 0.03173828125000000, 0.01336669921875000, 0.02140808105468750, 0.04504394531250000, 0.00581741333007812, -0.02464294433593750, 0.00523376464843750, 0.02702331542968750, 0.02586364746093750, 0.00055599212646484, 0.00109195709228516, -0.04455566406250000, 0.02027893066406250, -0.00772094726562500, 0.00299072265625000, -0.03530883789062500, 0.02560424804687500, -0.01860046386718750, -0.00602340698242188, -0.02600097656250000, -0.01660156250000000, 0.01786804199218750, -0.01675415039062500, 0.00832366943359375, 0.01256561279296875, 0.03741455078125000, 0.00211143493652344, 0.01498413085937500, 0.04669189453125000, 0.02919006347656250, 0.02966308593750000, -0.01136016845703125, 0.00401306152343750, 0.01524353027343750, -0.05645751953125000, -0.06094360351562500, -0.04748535156250000, 0.00125122070312500, -0.04006958007812500, 0.00081348419189453, -0.04119873046875000, 0.00237464904785156, 0.02793884277343750, -0.00138950347900391, 0.00937652587890625, 0.02917480468750000, -0.02293395996093750, 0.00410461425781250, -0.04211425781250000, -0.01721191406250000, -0.03283691406250000, -0.00877380371093750, 0.02413940429687500, -0.00675582885742188, -0.04391479492187500, -0.02053833007812500, 0.01683044433593750, -0.01056671142578125, 0.01209259033203125, 0.01815795898437500, 0.02418518066406250, -0.01774597167968750, -0.01820373535156250, 0.00203514099121094, 0.00722885131835938, 0.00427627563476562, 0.03335571289062500, -0.03488159179687500, 0.00866699218750000, -0.00330924987792969, 0.02398681640625000, -0.01638793945312500, -0.00474929809570312, -0.03530883789062500, -0.03903198242187500, -0.04104614257812500, 0.00468826293945312, -0.01422119140625000, -0.02436828613281250, -0.01783752441406250, -0.04132080078125000, -0.05187988281250000, -0.01491546630859375, -0.02268981933593750, -0.02873229980468750, 0.03863525390625000, 0.00731658935546875, -0.01071166992187500, -0.06500244140625000, -0.05450439453125000, 0.02218627929687500, -0.01617431640625000, -0.04510498046875000, -0.04925537109375000, -0.04043579101562500, 0.01242065429687500, -0.04531860351562500, -0.02600097656250000, -0.02714538574218750, -0.00936126708984375, 0.00099849700927734, -0.05520629882812500, 0.02008056640625000, -0.04495239257812500, -0.00470733642578125, -0.00764846801757812, -0.02941894531250000, -0.03466796875000000, -0.06555175781250000, -0.03515625000000000, -0.01136016845703125, 0.04449462890625000, -0.03439331054687500, -0.02674865722656250, 0.00314712524414062, -0.04815673828125000, -0.03109741210937500, -0.02682495117187500, -0.04006958007812500, 0.01411437988281250, -0.00381088256835938, 0.03778076171875000, -0.02122497558593750, -0.00518035888671875, 0.00142383575439453, -0.04458618164062500, -0.01986694335937500, -0.05157470703125000, -0.04153442382812500, -0.04534912109375000, 0.02040100097656250, -0.00639343261718750, -0.02792358398437500, -0.03836059570312500, -0.04949951171875000, -0.04907226562500000, -0.04525756835937500, -0.04617309570312500, -0.02645874023437500, -0.01914978027343750, -0.01573181152343750, -0.05203247070312500, -0.03164672851562500, -0.01353454589843750, -0.02209472656250000, 0.00865936279296875, -0.00473022460937500, 0.01207733154296875, 0.02311706542968750, -0.00233078002929688, 0.01378631591796875, 0.02348327636718750, -0.00032234191894531, -0.00316810607910156, -0.04449462890625000, 0.01089477539062500, 0.01530456542968750, -0.00304031372070312, -0.01838684082031250, -0.02770996093750000, 0.04296875000000000, 0.00628662109375000, -0.02270507812500000, -0.00658416748046875, -0.05212402343750000, -0.07196044921875000, -0.06805419921875000, -0.01280212402343750, -0.04589843750000000, -0.03869628906250000, -0.02787780761718750, -0.04589843750000000, -0.00875854492187500, -0.01197052001953125, -0.01061248779296875, -0.00130939483642578, -0.02949523925781250, 0.03074645996093750, -0.01408386230468750, 0.04278564453125000, -0.00274658203125000, 0.01495361328125000, -0.04025268554687500, -0.02363586425781250, 0.04656982421875000, 0.02607727050781250, 0.03210449218750000, 0.00573348999023438, -0.00886535644531250, 0.01562500000000000, 0.03121948242187500, -0.01618957519531250, -0.05551147460937500, -0.06500244140625000, -0.00346755981445312, 0.01882934570312500, 0.03649902343750000, 0.03741455078125000, -0.01145172119140625, -0.05352783203125000, 0.01031494140625000, 0.02117919921875000, 0.03082275390625000, 0.04150390625000000, 0.04837036132812500, -0.00457000732421875, 0.06182861328125000, 0.03274536132812500, 0.01334381103515625, 0.00367546081542969, 0.03430175781250000, 0.04595947265625000, 0.00314521789550781, 0.02322387695312500, 0.00034809112548828, 0.02497863769531250, 0.01320648193359375, 0.03186035156250000, 0.01482391357421875, 0.01585388183593750, -0.02523803710937500, -0.06439208984375000, -0.06890869140625000, -0.03549194335937500, -0.02215576171875000, -0.00256347656250000, -0.03494262695312500, -0.00460433959960938, 0.03117370605468750, 0.03262329101562500, 0.05676269531250000, 0.01082611083984375, 0.04187011718750000, 0.02984619140625000, 0.02392578125000000, 0.00704574584960938, 0.03848266601562500, -0.00904083251953125, 0.02612304687500000, -0.00820922851562500, 0.05899047851562500, 0.04940795898437500, 0.00289154052734375, -0.00060606002807617, 0.00769424438476562, -0.00047135353088379, 0.00150489807128906, -0.04629516601562500, 0.00146007537841797, -0.02796936035156250, -0.00636291503906250, -0.04748535156250000, -0.02296447753906250, 0.02813720703125000, -0.01802062988281250, -0.00847625732421875, 0.00308990478515625, 0.01727294921875000, 0.03164672851562500, 0.02894592285156250, 0.03025817871093750, 0.00251007080078125, 0.03097534179687500, 0.05767822265625000, 0.00474929809570312, -0.01908874511718750, -0.00292205810546875, 0.04013061523437500, 0.03482055664062500, 0.04406738281250000, 0.04806518554687500, 0.03231811523437500, 0.02571105957031250, -0.04013061523437500, 0.01756286621093750, -0.02467346191406250, -0.03591918945312500, -0.06011962890625000, -0.03123474121093750, -0.01895141601562500, 0.00714111328125000, 0.03875732421875000, -0.04144287109375000, -0.04782104492187500, -0.05792236328125000, -0.03479003906250000, 0.03265380859375000, 0.03363037109375000, 0.03106689453125000, 0.01942443847656250, 0.02262878417968750, 0.01412200927734375, 0.03491210937500000, 0.00314140319824219, 0.03585815429687500, 0.00222587585449219, 0.03213500976562500, -0.00563430786132812, -0.03756713867187500, -0.01434326171875000, 0.00680923461914062, 0.02330017089843750, 0.03089904785156250, -0.02716064453125000, -0.06237792968750000, 0.02557373046875000, -0.04443359375000000, -0.03131103515625000, -0.00262451171875000, 0.00717926025390625, -0.03353881835937500, 0.00111865997314453, 0.01989746093750000, -0.04492187500000000, -0.03601074218750000, 0.05154418945312500, 0.02778625488281250, 0.01712036132812500, 0.03601074218750000, -0.00005137920379639, -0.01346588134765625, 0.01664733886718750, 0.01076507568359375, 0.02761840820312500, 0.03094482421875000, 0.01248168945312500, 0.03637695312500000, 0.01748657226562500, -0.04010009765625000, 0.03262329101562500, -0.03845214843750000, -0.00362014770507812, 0.01945495605468750, -0.06561279296875000, -0.06167602539062500, -0.00292968750000000, 0.02062988281250000, -0.02352905273437500, 0.02305603027343750, -0.02397155761718750, -0.05194091796875000, -0.00078010559082031, -0.01667785644531250, 0.00747680664062500, -0.03454589843750000, 0.01343536376953125, 0.02169799804687500, 0.02720642089843750, -0.01224517822265625, -0.00774002075195312, 0.03216552734375000, 0.00713348388671875, 0.02806091308593750, -0.01063537597656250, -0.03909301757812500, 0.00049591064453125, 0.00377655029296875, -0.01402282714843750, 0.01046752929687500, -0.05062866210937500, -0.06286621093750000, -0.05917358398437500, 0.00299835205078125, 0.00204467773437500, -0.04208374023437500, -0.00817871093750000, -0.04687500000000000, -0.05187988281250000, -0.04681396484375000, -0.05496215820312500, -0.03808593750000000, -0.01232147216796875, -0.02368164062500000, -0.03573608398437500, -0.00190830230712891, 0.02941894531250000, -0.02532958984375000, 0.04394531250000000, -0.02316284179687500, -0.00096559524536133, -0.00210762023925781, -0.01025390625000000, 0.02673339843750000, -0.00809478759765625, 0.01358032226562500, -0.01409149169921875, -0.02600097656250000, -0.02029418945312500, -0.01840209960937500, -0.03086853027343750, -0.04522705078125000, 0.00936889648437500, -0.00723266601562500, -0.04275512695312500, 0.04425048828125000, -0.03283691406250000, -0.02212524414062500, -0.05807495117187500, -0.05331420898437500, -0.06335449218750000, -0.06250000000000000, -0.06280517578125000, -0.00814819335937500, -0.01298522949218750, 0.00534439086914062, -0.03509521484375000, 0.02947998046875000, -0.00174808502197266, 0.02061462402343750, 0.01734924316406250, 0.04223632812500000, -0.03485107421875000, 0.00039815902709961, -0.06237792968750000, -0.03430175781250000, -0.05499267578125000, -0.05761718750000000, -0.03086853027343750, 0.04052734375000000, 0.01824951171875000, 0.00936889648437500, -0.04345703125000000, -0.03262329101562500, -0.00341987609863281, 0.00583267211914062, -0.06072998046875000, -0.03335571289062500, -0.04843139648437500, -0.06323242187500000, -0.01097106933593750, -0.04525756835937500, 0.03028869628906250, 0.00850677490234375, 0.04428100585937500, 0.03649902343750000, 0.01188659667968750, 0.00117397308349609, -0.02117919921875000, -0.03811645507812500, -0.02511596679687500, -0.01580810546875000, -0.05004882812500000, -0.06445312500000000, 0.00934600830078125, 0.00048923492431641, -0.00590133666992188, -0.03924560546875000, -0.02685546875000000, -0.01473999023437500, -0.02967834472656250, 0.04113769531250000, -0.02052307128906250, -0.03533935546875000, -0.05389404296875000, -0.05673217773437500, -0.06439208984375000, -0.01174926757812500, -0.01552581787109375, -0.03964233398437500, -0.00376892089843750, -0.04693603515625000, -0.04544067382812500, -0.02114868164062500, -0.05120849609375000, 0.01123809814453125, -0.03253173828125000, 0.00625228881835938, -0.06192016601562500, -0.06262207031250000, 0.02098083496093750, 0.01518249511718750, -0.01531982421875000, -0.02565002441406250, -0.06015014648437500, 0.04464721679687500, 0.00985717773437500, -0.00186157226562500, -0.03485107421875000, -0.01359558105468750, -0.01467895507812500, -0.03314208984375000, -0.03244018554687500, 0.01175689697265625, -0.04748535156250000, -0.00725173950195312, -0.00200080871582031, -0.03906250000000000, -0.06311035156250000, -0.04553222656250000, -0.06292724609375000, -0.04309082031250000, -0.03790283203125000, -0.05697631835937500, -0.04635620117187500, -0.04284667968750000, 0.02995300292968750, 0.00258255004882812, -0.04089355468750000, 0.03146362304687500, -0.02597045898437500, 0.01011657714843750, -0.00621414184570312, -0.01092529296875000, 0.00527954101562500, -0.00909423828125000, 0.04547119140625000, 0.01618957519531250, -0.05285644531250000, 0.01305389404296875, -0.03086853027343750, 0.02413940429687500, 0.01460266113281250, 0.00708389282226562, 0.00346374511718750, 0.01437377929687500, -0.00340652465820312, 0.02429199218750000, -0.01840209960937500, -0.03561401367187500, -0.00495529174804688, 0.03372192382812500, 0.02958679199218750, -0.00636672973632812, 0.03111267089843750, 0.03198242187500000, 0.02217102050781250, 0.04891967773437500, 0.03738403320312500, -0.00127696990966797, -0.03417968750000000, -0.01412963867187500, -0.00848388671875000, -0.02450561523437500, -0.00741577148437500, 0.02014160156250000, 0.01371002197265625, 0.03228759765625000, 0.03622436523437500, 0.03063964843750000, 0.03070068359375000, 0.00820922851562500, 0.01702880859375000, 0.01895141601562500, -0.00194835662841797, 0.00347900390625000, -0.00018715858459473, 0.04119873046875000, -0.03829956054687500, 0.01559448242187500, -0.01396179199218750, 0.02551269531250000, 0.01728820800781250, 0.03433227539062500, 0.03903198242187500, 0.01242065429687500, 0.04495239257812500, -0.05212402343750000, -0.03817749023437500, -0.02272033691406250, 0.03399658203125000, 0.02587890625000000, 0.01989746093750000, -0.02743530273437500, 0.01838684082031250, 0.01565551757812500, 0.02742004394531250, 0.04919433593750000, 0.04827880859375000, 0.02035522460937500, -0.00504684448242188, -0.00553131103515625, 0.01980590820312500, -0.00105190277099609, 0.01487731933593750, 0.03408813476562500, -0.01997375488281250, 0.01976013183593750, 0.01248168945312500, 0.01756286621093750, 0.02716064453125000, 0.03262329101562500, -0.00566482543945312, -0.03713989257812500, 0.05068969726562500, 0.04302978515625000, -0.00741577148437500, 0.04785156250000000, 0.03594970703125000, 0.01776123046875000, 0.02062988281250000, 0.00097656250000000, 0.02667236328125000, -0.03942871093750000, -0.03836059570312500, 0.04833984375000000, -0.02223205566406250, -0.04653930664062500, 0.00508499145507812, 0.00631713867187500, 0.02372741699218750, -0.02128601074218750, -0.03143310546875000, -0.00477600097656250, -0.00050020217895508, 0.03942871093750000, 0.00955200195312500, -0.03466796875000000, -0.02516174316406250, 0.04641723632812500, 0.00182437896728516, -0.02581787109375000, -0.02325439453125000, 0.02410888671875000, 0.02789306640625000, -0.01202392578125000, 0.02539062500000000, 0.00164794921875000, -0.03231811523437500, -0.02967834472656250, 0.03521728515625000, -0.02264404296875000, -0.01873779296875000, 0.02996826171875000, 0.02185058593750000, -0.02226257324218750, -0.03222656250000000, 0.04724121093750000, -0.02832031250000000, 0.01029205322265625, -0.03384399414062500, -0.02478027343750000, 0.04089355468750000, -0.00421142578125000, -0.02343750000000000, -0.02606201171875000, -0.03114318847656250, -0.03114318847656250, -0.03253173828125000, 0.00781250000000000, 0.01745605468750000, 0.03570556640625000, -0.03622436523437500, -0.01345825195312500, 0.02001953125000000, 0.00567626953125000, 0.01434326171875000, -0.00360107421875000, 0.00781250000000000, -0.02597045898437500, 0.02313232421875000, 0.01686096191406250, 0.03771972656250000, 0.04141235351562500, -0.02430725097656250, 0.01885986328125000, 0.00956726074218750, 0.03240966796875000, -0.00400924682617188, -0.02452087402343750, 0.03515625000000000, 0.02586364746093750, 0.04986572265625000, 0.05639648437500000, 0.02966308593750000, 0.03305053710937500, 0.03179931640625000, 0.01924133300781250, 0.02461242675781250, 0.03875732421875000, 0.01965332031250000, 0.02020263671875000, 0.01034545898437500, 0.04034423828125000, -0.04882812500000000, 0.02055358886718750, -0.01171875000000000, -0.01024627685546875, -0.03735351562500000, 0.02185058593750000, 0.04464721679687500, 0.03475952148437500, 0.02264404296875000, 0.06420898437500000, 0.07427978515625000, 0.07305908203125000, 0.03091430664062500, 0.05450439453125000, 0.01942443847656250, 0.05075073242187500, 0.04827880859375000, 0.06109619140625000, 0.07452392578125000, 0.06494140625000000, 0.06451416015625000, 0.03405761718750000, 0.04083251953125000, -0.01573181152343750, 0.03778076171875000, -0.01699829101562500, 0.03082275390625000, 0.03302001953125000, 0.02618408203125000, -0.00343322753906250, -0.01826477050781250, -0.00463867187500000, -0.03173828125000000, 0.05618286132812500, 0.04385375976562500, 0.05352783203125000, 0.06390380859375000, 0.04367065429687500, 0.06304931640625000, 0.03482055664062500, 0.04986572265625000, 0.03079223632812500, 0.03059387207031250, 0.06317138671875000, 0.03210449218750000, 0.05133056640625000, 0.04785156250000000, 0.06234741210937500, 0.05319213867187500, 0.03881835937500000, 0.04251098632812500, -0.03625488281250000, 0.00442504882812500, -0.01376342773437500, -0.02079772949218750, -0.03105163574218750, 0.03369140625000000, 0.03765869140625000, 0.03062438964843750, -0.02008056640625000, -0.02970886230468750, -0.03466796875000000, -0.03332519531250000, 0.02281188964843750, 0.01156616210937500, 0.03089904785156250, -0.00285911560058594, 0.03186035156250000, 0.00382041931152344, 0.04776000976562500, 0.01132965087890625, -0.01638793945312500, 0.03814697265625000, -0.00136947631835938, -0.01459503173828125, -0.00014972686767578, -0.00247955322265625, -0.03286743164062500, -0.04507446289062500, -0.00931549072265625, -0.03997802734375000, 0.03915405273437500, 0.01924133300781250, -0.00839233398437500, -0.04772949218750000, 0.05191040039062500, -0.03143310546875000, -0.03494262695312500, -0.03137207031250000, 0.01773071289062500, 0.00900268554687500, 0.00356292724609375, 0.01768493652343750, 0.00465393066406250, -0.00544357299804688, 0.01635742187500000, 0.03503417968750000, -0.00798034667968750, 0.02473449707031250, 0.00504302978515625, 0.03402709960937500, -0.01117706298828125, 0.02526855468750000, -0.01968383789062500, -0.01524353027343750, -0.03921508789062500, -0.06372070312500000, -0.04473876953125000, -0.00765991210937500, 0.04556274414062500, -0.04214477539062500, 0.02209472656250000, -0.00555419921875000, 0.00495147705078125, 0.04629516601562500, -0.00061845779418945, -0.00871276855468750, -0.01071929931640625, 0.01623535156250000, -0.00067710876464844, 0.03256225585937500, -0.03060913085937500, 0.03149414062500000, 0.02810668945312500, -0.01157379150390625, -0.02095031738281250, 0.02716064453125000, -0.01085662841796875, 0.02784729003906250, -0.03198242187500000, 0.01718139648437500, -0.01221466064453125, -0.05529785156250000, -0.01355743408203125, -0.02561950683593750, -0.04254150390625000, 0.02339172363281250, 0.00006330013275146, -0.00529098510742188, 0.00585937500000000, -0.04095458984375000, -0.04614257812500000, 0.02197265625000000, -0.03201293945312500, -0.03097534179687500, -0.01338958740234375, 0.00340843200683594, 0.02557373046875000, -0.00920104980468750, -0.01853942871093750, 0.01905822753906250, -0.03530883789062500, 0.00031113624572754, 0.01169586181640625, 0.00169467926025391, -0.00825500488281250, -0.01591491699218750, -0.00109672546386719, -0.01091003417968750, -0.03533935546875000, 0.03182983398437500, 0.01326751708984375, -0.02432250976562500, 0.00411987304687500, -0.06402587890625000, -0.00395584106445312, 0.00031185150146484, -0.03875732421875000, 0.03228759765625000, 0.04122924804687500, -0.01495361328125000, -0.00918579101562500, 0.02326965332031250, 0.00440216064453125, -0.01015472412109375, 0.03695678710937500, 0.02467346191406250, 0.00686264038085938, -0.00603103637695312, 0.00938415527343750, 0.01792907714843750, 0.00762176513671875, -0.03756713867187500, -0.03558349609375000, 0.01831054687500000, -0.03973388671875000, 0.00527954101562500, 0.02220153808593750, -0.01028442382812500, 0.01841735839843750, -0.03031921386718750, 0.01042175292968750, -0.05294799804687500, 0.02224731445312500, 0.03982543945312500, -0.00643920898437500, -0.00928497314453125, -0.04776000976562500, 0.01087188720703125, 0.02366638183593750, 0.00048637390136719, 0.00809478759765625, 0.04083251953125000, 0.00223541259765625, 0.01841735839843750, 0.01214599609375000, 0.01055145263671875, -0.00629806518554688, -0.04028320312500000, -0.00385856628417969, -0.00561141967773438, -0.01739501953125000, -0.00107669830322266, 0.01930236816406250, -0.01293182373046875, -0.01264953613281250, 0.01643371582031250, -0.03738403320312500, 0.04394531250000000, -0.02363586425781250, -0.06317138671875000, 0.00411987304687500, 0.01408386230468750, -0.03622436523437500, 0.01281738281250000, -0.04547119140625000, 0.02893066406250000, 0.03045654296875000, 0.03240966796875000, -0.01197814941406250, -0.02148437500000000, 0.00898742675781250, 0.02189636230468750, 0.00400543212890625, 0.03320312500000000, 0.00143051147460938, 0.00173950195312500, -0.04684448242187500, -0.06329345703125000, -0.02256774902343750, -0.04324340820312500, -0.03363037109375000, 0.01901245117187500, 0.03359985351562500, -0.00911712646484375, 0.04309082031250000, -0.01785278320312500, 0.01005554199218750, -0.01359558105468750, -0.00268554687500000, 0.02041625976562500, 0.01425170898437500, 0.03912353515625000, 0.03295898437500000, -0.05404663085937500, 0.01588439941406250, 0.03131103515625000, 0.03277587890625000, 0.02322387695312500, -0.04016113281250000, 0.01821899414062500, -0.02484130859375000, -0.02740478515625000, 0.03381347656250000, -0.00628662109375000, -0.03189086914062500, -0.01605224609375000, -0.04843139648437500, -0.01384735107421875, 0.00772476196289062, -0.02380371093750000, -0.01573181152343750, 0.02452087402343750, 0.03424072265625000, 0.04183959960937500, 0.03698730468750000, 0.04394531250000000, 0.01625061035156250, 0.04037475585937500, 0.04501342773437500, 0.00785827636718750, -0.04385375976562500, 0.00955963134765625, 0.00608444213867188, -0.03625488281250000, 0.00933074951171875, -0.00744247436523438, 0.02508544921875000, -0.01486968994140625, -0.00000447034835815, -0.01464080810546875, -0.03381347656250000, 0.01805114746093750, -0.03808593750000000, 0.00015425682067871, 0.00214767456054688, 0.02806091308593750, -0.02674865722656250, 0.01298522949218750, 0.03594970703125000, -0.00229072570800781, -0.01185607910156250, -0.01573181152343750, 0.06311035156250000, 0.01341247558593750, 0.00653457641601562, 0.03182983398437500, 0.04589843750000000, -0.03007507324218750, -0.02043151855468750, -0.02836608886718750, -0.04132080078125000, -0.04742431640625000, -0.06268310546875000, -0.03689575195312500, -0.06256103515625000, -0.05065917968750000, -0.03601074218750000, 0.00246810913085938, 0.03332519531250000, -0.03582763671875000, -0.00918579101562500, 0.00440216064453125, -0.02021789550781250, -0.02021789550781250, -0.00139904022216797, 0.00075769424438477, -0.00983428955078125, 0.01387786865234375, 0.00289535522460938, 0.03634643554687500, 0.02986145019531250, 0.01071929931640625, -0.01647949218750000, -0.01184844970703125, 0.02798461914062500, -0.02946472167968750, 0.00994873046875000, -0.02365112304687500, -0.07153320312500000, -0.06234741210937500, -0.04968261718750000, -0.04193115234375000, -0.05630493164062500, -0.02574157714843750, -0.02388000488281250, 0.00892639160156250, 0.01927185058593750, 0.01562500000000000, 0.02391052246093750, -0.00456619262695312, -0.02130126953125000, -0.02133178710937500, -0.02806091308593750, -0.01989746093750000, -0.03244018554687500, 0.00140953063964844, 0.02523803710937500, -0.00256729125976562, 0.00307655334472656, 0.00442123413085938, -0.01064300537109375, -0.04071044921875000, -0.01434326171875000, 0.01005554199218750, -0.00550460815429688, -0.04739379882812500, -0.04763793945312500, -0.02960205078125000, -0.01849365234375000, -0.06298828125000000, -0.01010131835937500, -0.02699279785156250, 0.02586364746093750, 0.01280975341796875, 0.01712036132812500, -0.00012648105621338, 0.01300811767578125, -0.01094818115234375, 0.02362060546875000, -0.02029418945312500, -0.03674316406250000, -0.02978515625000000, -0.02175903320312500, -0.01608276367187500, -0.02928161621093750, 0.02545166015625000, 0.00413894653320312, 0.05828857421875000, -0.04022216796875000, -0.01591491699218750, 0.02801513671875000, -0.03405761718750000, -0.03311157226562500, 0.01661682128906250, -0.00030183792114258, -0.02262878417968750, -0.04635620117187500, 0.01606750488281250, -0.01898193359375000, 0.01911926269531250, 0.02438354492187500, 0.04974365234375000, 0.02481079101562500, -0.01470184326171875, 0.02612304687500000, -0.00226974487304688, -0.00897979736328125, 0.00304794311523438, -0.05099487304687500, 0.02095031738281250, 0.02867126464843750, -0.02134704589843750, -0.00651550292968750, 0.00965118408203125, 0.00493621826171875, 0.05181884765625000, 0.03054809570312500, 0.00635147094726562, 0.02508544921875000, -0.01803588867187500, -0.04464721679687500, -0.04330444335937500, 0.01510620117187500, -0.04196166992187500, -0.05279541015625000, 0.03158569335937500, -0.00512313842773438, 0.04522705078125000, 0.00474166870117188, 0.02514648437500000, 0.02008056640625000, -0.01910400390625000, -0.02207946777343750, -0.03201293945312500, -0.04010009765625000, -0.01551055908203125, -0.02435302734375000, -0.01085662841796875, -0.02597045898437500, 0.02394104003906250, -0.04473876953125000, -0.01073455810546875, 0.01783752441406250, 0.03808593750000000, 0.00387763977050781, -0.01351165771484375, 0.01531982421875000, -0.02841186523437500, -0.03631591796875000, 0.01462554931640625, 0.01622009277343750, 0.00470352172851562, -0.01817321777343750, 0.02751159667968750, 0.01924133300781250, 0.03250122070312500, 0.04949951171875000, 0.03247070312500000, 0.04223632812500000, -0.01396179199218750, -0.00793457031250000, -0.01105499267578125, 0.04763793945312500, -0.00105667114257812, 0.02665710449218750, 0.01531982421875000, 0.01786804199218750, 0.00145530700683594, 0.01876831054687500, 0.04959106445312500, 0.02178955078125000, 0.03729248046875000, -0.04162597656250000, 0.03952026367187500, -0.01913452148437500, -0.02806091308593750, 0.02728271484375000, 0.00817871093750000, -0.02363586425781250, 0.02915954589843750, -0.00873565673828125, 0.03732299804687500, 0.03308105468750000, 0.04177856445312500, 0.02674865722656250, 0.02963256835937500, 0.00464248657226562, -0.02758789062500000, -0.00888824462890625, 0.00693893432617188, -0.00975799560546875, 0.00808715820312500, 0.02551269531250000, 0.00125408172607422, 0.00417709350585938, 0.03573608398437500, 0.00584030151367188, 0.02876281738281250, -0.03991699218750000, 0.03118896484375000, -0.02297973632812500, 0.03546142578125000, 0.00204467773437500, -0.03961181640625000, 0.01441955566406250, 0.03558349609375000, 0.04339599609375000, -0.01647949218750000, 0.00409698486328125, 0.00692749023437500, 0.02651977539062500, 0.06091308593750000, 0.04443359375000000, 0.05096435546875000, 0.00959014892578125, 0.04525756835937500, 0.00976562500000000, 0.04757690429687500, -0.01747131347656250, 0.02716064453125000, 0.02359008789062500, -0.03475952148437500, -0.00217628479003906, 0.01837158203125000, 0.05514526367187500, 0.00593566894531250, 0.02890014648437500, 0.01835632324218750, 0.01992797851562500, 0.00897216796875000, 0.02471923828125000, -0.03031921386718750, -0.01506042480468750, 0.04428100585937500, 0.02363586425781250, 0.03381347656250000, 0.05157470703125000, 0.05734252929687500, -0.01425933837890625, -0.00618362426757812, 0.01151275634765625, -0.00309181213378906, 0.04476928710937500, -0.00763702392578125, -0.04177856445312500, 0.01308441162109375, 0.02230834960937500, 0.01092529296875000, 0.02024841308593750, 0.03372192382812500, -0.03475952148437500, 0.03050231933593750, 0.02922058105468750, -0.01509094238281250, -0.02832031250000000, 0.01773071289062500, -0.03234863281250000, -0.02410888671875000, -0.02128601074218750, -0.03964233398437500, -0.01377105712890625, 0.03536987304687500, -0.01451873779296875, -0.02917480468750000, 0.03152465820312500, -0.01750183105468750, 0.03997802734375000, 0.03091430664062500, -0.01253509521484375, 0.00332069396972656, 0.03421020507812500, 0.03704833984375000, 0.03105163574218750, -0.00666809082031250, -0.03411865234375000, -0.01899719238281250, 0.02792358398437500, 0.03289794921875000, 0.02908325195312500, -0.00555419921875000, 0.03158569335937500, -0.01689147949218750, -0.05404663085937500, 0.01885986328125000, -0.04946899414062500, -0.02996826171875000, 0.04284667968750000, 0.02722167968750000, 0.01130676269531250, -0.03567504882812500, -0.01383209228515625, 0.01364135742187500, 0.00160789489746094, 0.02136230468750000, -0.03613281250000000, 0.03701782226562500, -0.00210571289062500, 0.04934692382812500, 0.01111602783203125, 0.03120422363281250, 0.03244018554687500, 0.03402709960937500, 0.01084136962890625, -0.00713348388671875, 0.00154399871826172, -0.00341033935546875, 0.03320312500000000, -0.01992797851562500, 0.01736450195312500, 0.04302978515625000, 0.00493621826171875, 0.01414489746093750, 0.02511596679687500, -0.02577209472656250, -0.04901123046875000, -0.03378295898437500, 0.02424621582031250, 0.00095367431640625, -0.06228637695312500, -0.05532836914062500, -0.02500915527343750, -0.02302551269531250, 0.00268363952636719, 0.03424072265625000, 0.01663208007812500, -0.00402832031250000, 0.04388427734375000, 0.01449584960937500, 0.03161621093750000, 0.03494262695312500, 0.03433227539062500, 0.05981445312500000, -0.00086259841918945, 0.03332519531250000, -0.00936126708984375, 0.01788330078125000, -0.01354217529296875, -0.06256103515625000, 0.01187896728515625, -0.03286743164062500, 0.01100921630859375, -0.01260375976562500, 0.03936767578125000, -0.04013061523437500, 0.00358581542968750, 0.02058410644531250, -0.02288818359375000, -0.05526733398437500, -0.02200317382812500, -0.06304931640625000, -0.05334472656250000, -0.05187988281250000, -0.01660156250000000, -0.00283622741699219, -0.03515625000000000, 0.00004196166992188, -0.03628540039062500, 0.01612854003906250, 0.02888488769531250, -0.00857543945312500, 0.01718139648437500, -0.03247070312500000, 0.00383186340332031, -0.02978515625000000, -0.01617431640625000, 0.01519012451171875, -0.01591491699218750, 0.02958679199218750, 0.02639770507812500, 0.00790405273437500, 0.01367187500000000, -0.03350830078125000, -0.02128601074218750, -0.01965332031250000, -0.01893615722656250, 0.01358795166015625, 0.00687408447265625, 0.01371765136718750, -0.02726745605468750, 0.03424072265625000, -0.04702758789062500, -0.03086853027343750, -0.02127075195312500, -0.02662658691406250, -0.00959014892578125, -0.03692626953125000, 0.00147533416748047, 0.00548171997070312, 0.01940917968750000, 0.03405761718750000, -0.05139160156250000, -0.02963256835937500, 0.02435302734375000, 0.04553222656250000, 0.04608154296875000, -0.00692749023437500, 0.00714111328125000, -0.00527954101562500, -0.00448608398437500, -0.04061889648437500, 0.02130126953125000, -0.00390625000000000, -0.03778076171875000, 0.01049804687500000, -0.01861572265625000, -0.03271484375000000, -0.02784729003906250, -0.00502395629882812, 0.01817321777343750, -0.00888061523437500, 0.01049041748046875, 0.00341796875000000, 0.03096008300781250, -0.02261352539062500, -0.02314758300781250, 0.00664138793945312, -0.00385665893554688, -0.04055786132812500, -0.03701782226562500, -0.00772094726562500, 0.01016235351562500, -0.02548217773437500, -0.01942443847656250, -0.01416015625000000, -0.02996826171875000, 0.02813720703125000, 0.03302001953125000, 0.02526855468750000, 0.01428222656250000, 0.00204467773437500, -0.00106811523437500, -0.02861022949218750, -0.01074218750000000, 0.00128173828125000, 0.01113891601562500, 0.03277587890625000, -0.03105163574218750, -0.00128173828125000, 0.04089355468750000, -0.00601577758789062, 0.03601074218750000, 0.00683593750000000, 0.03259277343750000, -0.02040100097656250, 0.02099609375000000, 0.02227783203125000, -0.04843139648437500, 0.02014160156250000, 0.00283813476562500, 0.02471923828125000, -0.04989624023437500, -0.03836059570312500, -0.00750732421875000, 0.04071044921875000, -0.03759765625000000, 0.01525878906250000, 0.04327392578125000, -0.01824951171875000, -0.02899169921875000, -0.02079772949218750, -0.03460693359375000, -0.00466537475585938, 0.00242805480957031, -0.03344726562500000, -0.03561401367187500, 0.01126861572265625, 0.03753662109375000, 0.03631591796875000, -0.04144287109375000, -0.04544067382812500, -0.03140258789062500, 0.04006958007812500, -0.01623535156250000, 0.03137207031250000, 0.00692749023437500, 0.02294921875000000, 0.03204345703125000, 0.00057983398437500, -0.01202392578125000, -0.00625610351562500, -0.01443481445312500, 0.04187011718750000, 0.03814697265625000, -0.01123046875000000, 0.03063964843750000, -0.01562500000000000, -0.02616882324218750, 0.01083374023437500, 0.03289794921875000, -0.01319885253906250, 0.02305603027343750, 0.00002199411392212, 0.03308105468750000, 0.01129913330078125, -0.03128051757812500, -0.04064941406250000, 0.01597595214843750, -0.04522705078125000, -0.02162170410156250, -0.03128051757812500, 0.05038452148437500, 0.04278564453125000, -0.01574707031250000, 0.00126743316650391, 0.03848266601562500, -0.02255249023437500, 0.00000000000000000, -0.04852294921875000, -0.03857421875000000, -0.01785278320312500, -0.00741577148437500, -0.02665710449218750, 0.04980468750000000, -0.02938842773437500, -0.04772949218750000, -0.01511383056640625, 0.03439331054687500, -0.03076171875000000, 0.04812622070312500, -0.03155517578125000, 0.00546646118164062, 0.02673339843750000, 0.04898071289062500, 0.01375579833984375, 0.03158569335937500, 0.01288604736328125, 0.01203918457031250, -0.02551269531250000, 0.02911376953125000, -0.00023126602172852, 0.02101135253906250, 0.01936340332031250, -0.00022816658020020, 0.04116821289062500, -0.03805541992187500, -0.03369140625000000, 0.04443359375000000, -0.04452514648437500, -0.01367187500000000, 0.02862548828125000, 0.04351806640625000, -0.00463485717773438, 0.05212402343750000, 0.02159118652343750, -0.02532958984375000, 0.03579711914062500, 0.04660034179687500, 0.01828002929687500, 0.05953979492187500, 0.01780700683593750, 0.00235748291015625, 0.00188541412353516, 0.03250122070312500, 0.01679992675781250, -0.03198242187500000, 0.04611206054687500, 0.00087070465087891, -0.00490570068359375, -0.00484848022460938, -0.05718994140625000, -0.03417968750000000, -0.01834106445312500, 0.05108642578125000, 0.03009033203125000, -0.04885864257812500, 0.02246093750000000, -0.04910278320312500, 0.00946044921875000, -0.03063964843750000, 0.02746582031250000, -0.00041294097900391, 0.00763320922851562, 0.02297973632812500, 0.01367187500000000, 0.02792358398437500, 0.05065917968750000, 0.03808593750000000, 0.03976440429687500, 0.00088548660278320, 0.02995300292968750, -0.00813293457031250, -0.00653076171875000, -0.04556274414062500, -0.03460693359375000, -0.00542831420898438, -0.05850219726562500, -0.03472900390625000, -0.03332519531250000, -0.04440307617187500, -0.02128601074218750, 0.00771713256835938, -0.03262329101562500, -0.01533508300781250, 0.02770996093750000, 0.03631591796875000, -0.04110717773437500, 0.02676391601562500, 0.03656005859375000, 0.04034423828125000, 0.02801513671875000, 0.03677368164062500, 0.01499176025390625, 0.05786132812500000, 0.00361824035644531, 0.02073669433593750, 0.03405761718750000, 0.03491210937500000, -0.00274658203125000, 0.02023315429687500, 0.01040649414062500, 0.04254150390625000, 0.03189086914062500, -0.00444412231445312, 0.01664733886718750, 0.01533508300781250, -0.04278564453125000, -0.06134033203125000, -0.05410766601562500, -0.03662109375000000, 0.00529861450195312, -0.03121948242187500, 0.04565429687500000, -0.03973388671875000, -0.01379394531250000, 0.02313232421875000, 0.04580688476562500, -0.02320861816406250, -0.02062988281250000, 0.03427124023437500, 0.00101089477539062, -0.00719451904296875, 0.01369476318359375, 0.01715087890625000, 0.02996826171875000, 0.04815673828125000, 0.04147338867187500, 0.03536987304687500, 0.04162597656250000, 0.03134155273437500, 0.04910278320312500, 0.03213500976562500, 0.01498413085937500, -0.03689575195312500, -0.00936889648437500, -0.03646850585937500, -0.05163574218750000, -0.06219482421875000, -0.05807495117187500, 0.00146484375000000, 0.02243041992187500, -0.00912475585937500, -0.02664184570312500, 0.04089355468750000, 0.03323364257812500, 0.02705383300781250, 0.02676391601562500, 0.00980377197265625, -0.00785827636718750, 0.02496337890625000, -0.00118064880371094, 0.01437377929687500, -0.01678466796875000, 0.03207397460937500, 0.02404785156250000, 0.03125000000000000, 0.06494140625000000, 0.03250122070312500, 0.00740814208984375, 0.05343627929687500, -0.00865936279296875, 0.03028869628906250, 0.00957489013671875, 0.02806091308593750, -0.04525756835937500, -0.03982543945312500, 0.00338554382324219, 0.00511550903320312, 0.02113342285156250, 0.03491210937500000, -0.00557708740234375, 0.03103637695312500, 0.03247070312500000, 0.04284667968750000, 0.04748535156250000, 0.02510070800781250, 0.03077697753906250, 0.02528381347656250, 0.00970458984375000, 0.03677368164062500, 0.02832031250000000, 0.03628540039062500, -0.00556945800781250, 0.03738403320312500, 0.01571655273437500, 0.04837036132812500, 0.01890563964843750, -0.00744628906250000, 0.01413726806640625, 0.02742004394531250, -0.00384140014648438, 0.02005004882812500, -0.05343627929687500, -0.06008911132812500, -0.03497314453125000, -0.03256225585937500, 0.01257324218750000, 0.02212524414062500, 0.02989196777343750, 0.03149414062500000, 0.05157470703125000, 0.03588867187500000, 0.02841186523437500, -0.01515960693359375, 0.01666259765625000, -0.03143310546875000, 0.01252746582031250, -0.02897644042968750, 0.03213500976562500, 0.00882720947265625, 0.05261230468750000, -0.01151275634765625, 0.03524780273437500, 0.02902221679687500, 0.03041076660156250, 0.01748657226562500, 0.03652954101562500, 0.03341674804687500, 0.01124572753906250, 0.00672149658203125, -0.00823974609375000, -0.01565551757812500, -0.04629516601562500, -0.05419921875000000, -0.01215362548828125, 0.03286743164062500, 0.01249694824218750, 0.05459594726562500, 0.02651977539062500, 0.03170776367187500, 0.01546478271484375, 0.02015686035156250, 0.00542068481445312, -0.00127029418945312, -0.00302124023437500, -0.03759765625000000, -0.01288604736328125, -0.06274414062500000, 0.03250122070312500, 0.03120422363281250, 0.02021789550781250, 0.03732299804687500, 0.03225708007812500, 0.05618286132812500, 0.02616882324218750, 0.00297927856445312, 0.00656509399414062, 0.01483917236328125, 0.01226806640625000, -0.01075744628906250, -0.01942443847656250, -0.03897094726562500, -0.04574584960937500, 0.01367187500000000, 0.01381683349609375, 0.03521728515625000, 0.04977416992187500, 0.01218414306640625, 0.03083801269531250, 0.00110244750976562, -0.03683471679687500, 0.02738952636718750, 0.01570129394531250, 0.02203369140625000, -0.01064300537109375, -0.02442932128906250, -0.05053710937500000, 0.01349639892578125, -0.03512573242187500, 0.00864410400390625, 0.01509094238281250, -0.00487899780273438, 0.02098083496093750, 0.01594543457031250, 0.04287719726562500, 0.02360534667968750, -0.04043579101562500, -0.06512451171875000, 0.01437377929687500, -0.02920532226562500, -0.01078796386718750, 0.03106689453125000, 0.03332519531250000, 0.01094055175781250, 0.03146362304687500, -0.03652954101562500, 0.00997161865234375, -0.01925659179687500, -0.00301742553710938, -0.01849365234375000, -0.04739379882812500, -0.06011962890625000, -0.04772949218750000, -0.01997375488281250, -0.03561401367187500, 0.01702880859375000, 0.01522064208984375, 0.05142211914062500, 0.02423095703125000, 0.02044677734375000, 0.00868225097656250, 0.01475524902343750, -0.04193115234375000, 0.00073242187500000, -0.05364990234375000, -0.01574707031250000, 0.00841522216796875, -0.03549194335937500, -0.03128051757812500, -0.02317810058593750, 0.03247070312500000, 0.01334381103515625, 0.04415893554687500, 0.03021240234375000, -0.05184936523437500, -0.00837707519531250, -0.00788116455078125, -0.06274414062500000, -0.02717590332031250, -0.01028442382812500, -0.05184936523437500, 0.01529693603515625, -0.03765869140625000, -0.01332092285156250, 0.03530883789062500, 0.00349998474121094, 0.03134155273437500, 0.03601074218750000, -0.01270294189453125, 0.03102111816406250, 0.01417541503906250, -0.03778076171875000, -0.01023101806640625, -0.00926208496093750, 0.05145263671875000, -0.03031921386718750, -0.04550170898437500, 0.04757690429687500, -0.02900695800781250, 0.03674316406250000, 0.00150299072265625, -0.03753662109375000, 0.02140808105468750, -0.00404357910156250, -0.02320861816406250, 0.00764083862304688, 0.00767517089843750, -0.05111694335937500, 0.01091003417968750, -0.00980377197265625, -0.04141235351562500, -0.04818725585937500, -0.03219604492187500, 0.04785156250000000, -0.00980377197265625, 0.04446411132812500, 0.03826904296875000, 0.01026153564453125, 0.01042938232421875, -0.00876617431640625, -0.00634765625000000, 0.00344276428222656, -0.00955200195312500, 0.01760864257812500, -0.02844238281250000, -0.00204467773437500, -0.01976013183593750, -0.02809143066406250, 0.03292846679687500, 0.00005191564559937, -0.06329345703125000, 0.00466537475585938, -0.03117370605468750, -0.06280517578125000, -0.06292724609375000, 0.03143310546875000, 0.00992584228515625, -0.03195190429687500, -0.02021789550781250, -0.01255035400390625, -0.02954101562500000, 0.03277587890625000, 0.05252075195312500, -0.00888824462890625, 0.00342559814453125, -0.01911926269531250, 0.03466796875000000, 0.00936889648437500, -0.00939941406250000, -0.01834106445312500, -0.03762817382812500, -0.04956054687500000, 0.00008279085159302, 0.00701904296875000, -0.03341674804687500, -0.03878784179687500, 0.06384277343750000, 0.00754165649414062, -0.04895019531250000, -0.02478027343750000, -0.01434326171875000, 0.03982543945312500, 0.03192138671875000, -0.00174999237060547, -0.02133178710937500, -0.00217437744140625, -0.03939819335937500, -0.03195190429687500, -0.02310180664062500, -0.00063943862915039, 0.02528381347656250, -0.01389312744140625, 0.03253173828125000, -0.00022506713867188, 0.00029611587524414, -0.00013554096221924, -0.05163574218750000, -0.03262329101562500, 0.01252746582031250, 0.02966308593750000, -0.02032470703125000, 0.04071044921875000, 0.01882934570312500, 0.03262329101562500, 0.03555297851562500, -0.03735351562500000, -0.02629089355468750, -0.02272033691406250, -0.04586791992187500, -0.03085327148437500, -0.03213500976562500, -0.01641845703125000, -0.02445983886718750, -0.03018188476562500, -0.01670837402343750, -0.01800537109375000, 0.02188110351562500, -0.03308105468750000, 0.01538085937500000, 0.02037048339843750, 0.01099395751953125, -0.03277587890625000, 0.02876281738281250, 0.00720977783203125, -0.03942871093750000, -0.06402587890625000, -0.00048804283142090, 0.00939941406250000, -0.01144409179687500, -0.01425170898437500, 0.00450897216796875, 0.00825500488281250, 0.06781005859375000, 0.00431060791015625, 0.02229309082031250, -0.00848388671875000, 0.01052856445312500, -0.03823852539062500, -0.05484008789062500, -0.02703857421875000, -0.03646850585937500, -0.04043579101562500, -0.04733276367187500, -0.00217437744140625, -0.03506469726562500, -0.02590942382812500, -0.04113769531250000, -0.00547027587890625, 0.01154327392578125, -0.01876831054687500, 0.01640319824218750, -0.03768920898437500, -0.03092956542968750, -0.04794311523437500, -0.00544357299804688, 0.01492309570312500, 0.01501464843750000, -0.00244140625000000, -0.03802490234375000, 0.05480957031250000, 0.04595947265625000, 0.01451110839843750, 0.03567504882812500, -0.00143051147460938, 0.00613021850585938, -0.01450347900390625, -0.03005981445312500, -0.03308105468750000, -0.02044677734375000, 0.00629806518554688, -0.02668762207031250, -0.03140258789062500, -0.03897094726562500, 0.00715637207031250, -0.02140808105468750, -0.02636718750000000, -0.04391479492187500, 0.03646850585937500, -0.04428100585937500, -0.01513671875000000, -0.04888916015625000, -0.04864501953125000, 0.04586791992187500, 0.02139282226562500, 0.01739501953125000, 0.00820922851562500, -0.01968383789062500, 0.00521087646484375, -0.00219917297363281, 0.03945922851562500, -0.00326919555664062, -0.03488159179687500, -0.03004455566406250, -0.01646423339843750, -0.00674057006835938, 0.00431823730468750, -0.00532913208007812, -0.02839660644531250, 0.00096702575683594, -0.00433731079101562, -0.02864074707031250, -0.03622436523437500, -0.05346679687500000, -0.04190063476562500, -0.02989196777343750, -0.02746582031250000, -0.02548217773437500, -0.04000854492187500, -0.05557250976562500, -0.00669860839843750, -0.00104141235351562, -0.04586791992187500, -0.02929687500000000, -0.02255249023437500, 0.03942871093750000, 0.04306030273437500, -0.02210998535156250, 0.02772521972656250, -0.01148986816406250, 0.02973937988281250, 0.03463745117187500, 0.04064941406250000, -0.02330017089843750, 0.03582763671875000, -0.04040527343750000, 0.03173828125000000, -0.04119873046875000, 0.01873779296875000, -0.01092529296875000, -0.00881958007812500, 0.02441406250000000, -0.03186035156250000, -0.01737976074218750, -0.06262207031250000, -0.04925537109375000, -0.01543426513671875, -0.05325317382812500, -0.02331542968750000, -0.01785278320312500, -0.04409790039062500, 0.00399780273437500, 0.01229858398437500, -0.02430725097656250, -0.01950073242187500, 0.06097412109375000, 0.02021789550781250, 0.05062866210937500, 0.00069236755371094, -0.00676345825195312, 0.00820159912109375, -0.03359985351562500, 0.01123046875000000, -0.03671264648437500, 0.00772476196289062, -0.01444244384765625, -0.03117370605468750, -0.01760864257812500, -0.04342651367187500, -0.03552246093750000, -0.02525329589843750, -0.03662109375000000, -0.04898071289062500, -0.06372070312500000, 0.00545883178710938, 0.01198577880859375, -0.02351379394531250, 0.02218627929687500, -0.04824829101562500, -0.02685546875000000, 0.02917480468750000, 0.01611328125000000, -0.02648925781250000, 0.01001739501953125, 0.06799316406250000, 0.04171752929687500, 0.05722045898437500, 0.05987548828125000, -0.01824951171875000, 0.01628112792968750, 0.00852966308593750, 0.00652694702148438, 0.00653839111328125, -0.01779174804687500, -0.03442382812500000, 0.03491210937500000, -0.02941894531250000, 0.00151824951171875, -0.00066184997558594, -0.02670288085937500, 0.02305603027343750, 0.02995300292968750, 0.00111770629882812, 0.01737976074218750, 0.02180480957031250, -0.03396606445312500, -0.00598907470703125, 0.01757812500000000, 0.02423095703125000, 0.00506591796875000, -0.04492187500000000, -0.04080200195312500, 0.03137207031250000, 0.04406738281250000, 0.03417968750000000, 0.03652954101562500, 0.05242919921875000, 0.06689453125000000, 0.03594970703125000, 0.04113769531250000, 0.06451416015625000, 0.06137084960937500, 0.04849243164062500, 0.03022766113281250, 0.06500244140625000, 0.06164550781250000, 0.03518676757812500, 0.06384277343750000, 0.03259277343750000, 0.04559326171875000, 0.00745010375976562, 0.01594543457031250, 0.04293823242187500, -0.03314208984375000, 0.04583740234375000, 0.04595947265625000, 0.02685546875000000, -0.00723266601562500, 0.04010009765625000, 0.00408935546875000, 0.02331542968750000, 0.03961181640625000, 0.05285644531250000, 0.06402587890625000, 0.08184814453125000, 0.06597900390625000, 0.06335449218750000, 0.06280517578125000, 0.05950927734375000, 0.06262207031250000, 0.06463623046875000, 0.06390380859375000, 0.06402587890625000, 0.06378173828125000, 0.05462646484375000, 0.06982421875000000, 0.02644348144531250, 0.04464721679687500, -0.00696945190429688, -0.01762390136718750, -0.03329467773437500, 0.04315185546875000, -0.03320312500000000, -0.01385498046875000, 0.00225830078125000, 0.04595947265625000, -0.00625610351562500, 0.03912353515625000, 0.04199218750000000, 0.02629089355468750, -0.00679779052734375, 0.02781677246093750, -0.02195739746093750, 0.02546691894531250, 0.03427124023437500, -0.01233673095703125, 0.03125000000000000, 0.03308105468750000, 0.03225708007812500, 0.01829528808593750, 0.03448486328125000, 0.01774597167968750, 0.01171112060546875, -0.02021789550781250, -0.01351928710937500, 0.00559234619140625, -0.03634643554687500, 0.02108764648437500, -0.00701904296875000, 0.04577636718750000, 0.03173828125000000, -0.02392578125000000, 0.04821777343750000, 0.00399780273437500, -0.04785156250000000, 0.02178955078125000, 0.02246093750000000, 0.02001953125000000, -0.01629638671875000, -0.02040100097656250, 0.00714111328125000, 0.03259277343750000, 0.04656982421875000, -0.02040100097656250, 0.00799560546875000, -0.02384948730468750, -0.00305366516113281, 0.01855468750000000, -0.02215576171875000, 0.00643920898437500, 0.02404785156250000, 0.04882812500000000, 0.01065063476562500, -0.04754638671875000, 0.02441406250000000, 0.02233886718750000, 0.01379394531250000, 0.04595947265625000, 0.02587890625000000, 0.04608154296875000, 0.01495361328125000, 0.02935791015625000, 0.02703857421875000, -0.02410888671875000, 0.02984619140625000, 0.02716064453125000, 0.03176879882812500, 0.02517700195312500, -0.00612640380859375, 0.02859497070312500, -0.05667114257812500, 0.00214576721191406, -0.03390502929687500, -0.01217651367187500, -0.03494262695312500, -0.06015014648437500, 0.01733398437500000, -0.05166625976562500, -0.00090408325195312, -0.02986145019531250, -0.01371002197265625, 0.01762390136718750, -0.06530761718750000, -0.03247070312500000, 0.04296875000000000, -0.01824951171875000, -0.03007507324218750, 0.00381469726562500, -0.03016662597656250, 0.00408935546875000, -0.01065063476562500, 0.01269531250000000, -0.01861572265625000, -0.03353881835937500, -0.02642822265625000, -0.06573486328125000, 0.01562500000000000, -0.05145263671875000, -0.06262207031250000, -0.06640625000000000, -0.05050659179687500, -0.04434204101562500, -0.04089355468750000, -0.01719665527343750, -0.04629516601562500, -0.01512145996093750, -0.01119232177734375, 0.00637817382812500, 0.01281738281250000, -0.05917358398437500, -0.00699234008789062, -0.06076049804687500, -0.05355834960937500, -0.00462722778320312, 0.02539062500000000, 0.04962158203125000, 0.04705810546875000, -0.03698730468750000, 0.01074218750000000, -0.01541137695312500, -0.04513549804687500, -0.02459716796875000, 0.01933288574218750, -0.01255798339843750, -0.06106567382812500, -0.04406738281250000, -0.06835937500000000, -0.05398559570312500, -0.07019042968750000, -0.06439208984375000, -0.04626464843750000, -0.07849121093750000, -0.05639648437500000, -0.01879882812500000, -0.06616210937500000, -0.04968261718750000, -0.05535888671875000, -0.03741455078125000, 0.00048112869262695, -0.05484008789062500, 0.01582336425781250, -0.04257202148437500, 0.03857421875000000, -0.02410888671875000, 0.01007080078125000, -0.01083374023437500, -0.00137329101562500, 0.01057434082031250, -0.00714492797851562, 0.05422973632812500, 0.01119995117187500, -0.01448822021484375, -0.01357269287109375, -0.06008911132812500, -0.00377655029296875, -0.06341552734375000, -0.04626464843750000, -0.06298828125000000, -0.04934692382812500, -0.06384277343750000, -0.02000427246093750, 0.03845214843750000, 0.01748657226562500, 0.01940917968750000, 0.03056335449218750, 0.05468750000000000, -0.02821350097656250, -0.00427246093750000, -0.01704406738281250, -0.03024291992187500, 0.01014709472656250, 0.03588867187500000, 0.00497436523437500, -0.02362060546875000, 0.02703857421875000, 0.01544189453125000, 0.03979492187500000, 0.03482055664062500, 0.01509094238281250, -0.02392578125000000, 0.01931762695312500, 0.04736328125000000, 0.01229858398437500, -0.04071044921875000, 0.02255249023437500, -0.04910278320312500, -0.02757263183593750, -0.06396484375000000, -0.01251983642578125, 0.03540039062500000, 0.02990722656250000, 0.02235412597656250, 0.00592041015625000, -0.00331878662109375, 0.03677368164062500, 0.03543090820312500, 0.01748657226562500, -0.04364013671875000, -0.01309204101562500, 0.03811645507812500, 0.03399658203125000, 0.04852294921875000, 0.02529907226562500, -0.02700805664062500, -0.00811004638671875, 0.01033782958984375, 0.02017211914062500, 0.02522277832031250, 0.00162506103515625, 0.00169277191162109, 0.01512908935546875, -0.04110717773437500, 0.00320053100585938, -0.05706787109375000, -0.06646728515625000, -0.06256103515625000, -0.03817749023437500, -0.00260925292968750, 0.00345230102539062, 0.00374031066894531, -0.00954437255859375, 0.00757598876953125, 0.01609802246093750, 0.01684570312500000, 0.01490020751953125, -0.03628540039062500, 0.05014038085937500, -0.03875732421875000, -0.00604248046875000, 0.02703857421875000, -0.01690673828125000, 0.03506469726562500, 0.02415466308593750, -0.00269508361816406, -0.03677368164062500, 0.04986572265625000, -0.00426483154296875, -0.00624465942382812, 0.01554107666015625, 0.03475952148437500, -0.05126953125000000, -0.02227783203125000, -0.06317138671875000, -0.06329345703125000, -0.03182983398437500, 0.00822448730468750, -0.03683471679687500, 0.01924133300781250, -0.02264404296875000, 0.03744506835937500, 0.00000673532485962, 0.04678344726562500, 0.00637435913085938, -0.05130004882812500, -0.03775024414062500, -0.01966857910156250, 0.02210998535156250, -0.01939392089843750, 0.02847290039062500, -0.02668762207031250, 0.01905822753906250, 0.02746582031250000, 0.01571655273437500, 0.02368164062500000, -0.01089477539062500, 0.00853729248046875, -0.03543090820312500, 0.01190185546875000, 0.02255249023437500, -0.06665039062500000, -0.06372070312500000, -0.05410766601562500, -0.00483322143554688, 0.00842285156250000, 0.00645065307617188, 0.01647949218750000, -0.03289794921875000, 0.04141235351562500, -0.01640319824218750, -0.03463745117187500, -0.03256225585937500, -0.03109741210937500, -0.04217529296875000, 0.02467346191406250, -0.03857421875000000, -0.03698730468750000, 0.05032348632812500, -0.01232147216796875, -0.04028320312500000, 0.00748062133789062, -0.04000854492187500, -0.00966644287109375, -0.00218963623046875, 0.03015136718750000, -0.02575683593750000, -0.00055170059204102, 0.01564025878906250, -0.05953979492187500, -0.06280517578125000, -0.02278137207031250, 0.00587844848632812, 0.02926635742187500, -0.02081298828125000, 0.02915954589843750, -0.02978515625000000, 0.03271484375000000, 0.02722167968750000, -0.01155090332031250, -0.05178833007812500, -0.03353881835937500, -0.04974365234375000, 0.01805114746093750, 0.01770019531250000, 0.03036499023437500, -0.03247070312500000, 0.02853393554687500, 0.00741195678710938, 0.00697326660156250, 0.01162719726562500, -0.04016113281250000, -0.02752685546875000, 0.01856994628906250, -0.02297973632812500, -0.01358032226562500, 0.01036071777343750, -0.06311035156250000, -0.06250000000000000, 0.01730346679687500, 0.00445556640625000, 0.03277587890625000, -0.00502395629882812, 0.03558349609375000, -0.00648880004882812, -0.00466918945312500, -0.01155853271484375, -0.06240844726562500, -0.05221557617187500, 0.01018524169921875, -0.03207397460937500, -0.03179931640625000, -0.03338623046875000, 0.02616882324218750, -0.04144287109375000, -0.04382324218750000, -0.00222015380859375, 0.03059387207031250, -0.02424621582031250, -0.01136016845703125, -0.00457763671875000, -0.01159667968750000, 0.04339599609375000, 0.04809570312500000, -0.01012420654296875, -0.05691528320312500, -0.04446411132812500, -0.00997161865234375, 0.03833007812500000, -0.02500915527343750, -0.01094055175781250, -0.03680419921875000, 0.02658081054687500, -0.04843139648437500, -0.02221679687500000, -0.04714965820312500, -0.03927612304687500, -0.03201293945312500, -0.02424621582031250, -0.02450561523437500, -0.00604248046875000, 0.03558349609375000, -0.01832580566406250, 0.03225708007812500, -0.02944946289062500, -0.04220581054687500, -0.01016998291015625, 0.00380897521972656, 0.02288818359375000, -0.00153064727783203, -0.01268768310546875, 0.05905151367187500, -0.00561141967773438, -0.02888488769531250, 0.01815795898437500, 0.01330566406250000, 0.02970886230468750, 0.05444335937500000, 0.01505279541015625, -0.00754547119140625, -0.02404785156250000, -0.00363349914550781, -0.04003906250000000, -0.06683349609375000, -0.03634643554687500, -0.03973388671875000, -0.00069618225097656, -0.04159545898437500, -0.00195312500000000, -0.03912353515625000, 0.03077697753906250, -0.00002688169479370, -0.02642822265625000, -0.00389289855957031, 0.03552246093750000, 0.01123809814453125, 0.01744079589843750, 0.01455688476562500, 0.03503417968750000, 0.03387451171875000, 0.01171112060546875, -0.01338958740234375, 0.00623321533203125, -0.00927734375000000, 0.01159667968750000, -0.01846313476562500, 0.01629638671875000, -0.00444030761718750, 0.00622940063476562, 0.00515365600585938, 0.00978851318359375, -0.03019714355468750, -0.01557159423828125, -0.02998352050781250, 0.00391006469726562, -0.01657104492187500, -0.00692749023437500, -0.03778076171875000, 0.04171752929687500, 0.02809143066406250, 0.00554656982421875, 0.03314208984375000, 0.01313018798828125, 0.03240966796875000, 0.00954437255859375, 0.03695678710937500, 0.01875305175781250, 0.01812744140625000, -0.02490234375000000, 0.04156494140625000, 0.00632476806640625, -0.01730346679687500, 0.01524353027343750, 0.04272460937500000, -0.00071430206298828, 0.01948547363281250, 0.04370117187500000, 0.02804565429687500, 0.01902770996093750, 0.01107025146484375, -0.04995727539062500, 0.02105712890625000, -0.05334472656250000, -0.04348754882812500, 0.02722167968750000, 0.01104736328125000, -0.04727172851562500, 0.00725936889648438, 0.05877685546875000, -0.00482177734375000, 0.02706909179687500, 0.02105712890625000, 0.03320312500000000, 0.02185058593750000, -0.03909301757812500, 0.02851867675781250, 0.03549194335937500, 0.01091003417968750, 0.02110290527343750, 0.00237274169921875, 0.03369140625000000, 0.00088453292846680, 0.04501342773437500, 0.01094055175781250, -0.00885772705078125, 0.00656509399414062, 0.02053833007812500, -0.00722885131835938, -0.06286621093750000, -0.01366424560546875, 0.00259208679199219, 0.01141357421875000, -0.02958679199218750, -0.01580810546875000, -0.04653930664062500, -0.00041747093200684, -0.02774047851562500, -0.02763366699218750, 0.03759765625000000, 0.03222656250000000, -0.01513671875000000, 0.03387451171875000, -0.03408813476562500, 0.01823425292968750, -0.00563049316406250, 0.04797363281250000, 0.04718017578125000, 0.02638244628906250, 0.03683471679687500, 0.04052734375000000, 0.00766372680664062, 0.03213500976562500, 0.04037475585937500, 0.04754638671875000, -0.04937744140625000, 0.03176879882812500, 0.00778961181640625, -0.06988525390625000, -0.01049804687500000, 0.03381347656250000, -0.04666137695312500, -0.04345703125000000, -0.02239990234375000, -0.03723144531250000, -0.03631591796875000, 0.03814697265625000, -0.01229858398437500, 0.02981567382812500, 0.01651000976562500, -0.04159545898437500, -0.01162719726562500, 0.01930236816406250, -0.00382995605468750, 0.00811004638671875, 0.04388427734375000, -0.01708984375000000, 0.03326416015625000, -0.00214576721191406, 0.03741455078125000, -0.01589965820312500, 0.02090454101562500, -0.03921508789062500, 0.02363586425781250, -0.05020141601562500, -0.03536987304687500, -0.06195068359375000, -0.02320861816406250, 0.03350830078125000, -0.01989746093750000, 0.02978515625000000, 0.03100585937500000, 0.02665710449218750, -0.03909301757812500, 0.01950073242187500, -0.04513549804687500, -0.05130004882812500, 0.02967834472656250, -0.03527832031250000, -0.00374603271484375, 0.01479339599609375, 0.02973937988281250, -0.01939392089843750, 0.01290130615234375, 0.01673889160156250, -0.03028869628906250, -0.01786804199218750, -0.04589843750000000, -0.01169586181640625, -0.06347656250000000, -0.01821899414062500, -0.02584838867187500, -0.01713562011718750, -0.05267333984375000, 0.01156616210937500, -0.01809692382812500, -0.02040100097656250, -0.01296997070312500, -0.03247070312500000, -0.00252151489257812, -0.03729248046875000, 0.00335502624511719, -0.06311035156250000, -0.05981445312500000, -0.05276489257812500, -0.03622436523437500, -0.00771331787109375, -0.03555297851562500, 0.00043082237243652, -0.03482055664062500, -0.03466796875000000, -0.00260353088378906, -0.01409149169921875, 0.01423645019531250, -0.04183959960937500, -0.04306030273437500, -0.05172729492187500, -0.02468872070312500, -0.01294708251953125, -0.04162597656250000, -0.05392456054687500, -0.04635620117187500, -0.03195190429687500, 0.01956176757812500, 0.02441406250000000, 0.00616455078125000, 0.00716400146484375, -0.04238891601562500, -0.01899719238281250, -0.04809570312500000, -0.05081176757812500, -0.03936767578125000, 0.00156211853027344, -0.01508331298828125, 0.01200866699218750, -0.01942443847656250, -0.01166534423828125, 0.01783752441406250, -0.04269409179687500, -0.04782104492187500, -0.01329040527343750, -0.00144672393798828, 0.01023101806640625, -0.00862121582031250, -0.03558349609375000, -0.01840209960937500, -0.00481796264648438, -0.02732849121093750, -0.06347656250000000, 0.01510620117187500, -0.00778579711914062, -0.03781127929687500, 0.00066184997558594, -0.03405761718750000, 0.02569580078125000, 0.00217628479003906, -0.04730224609375000, -0.00975036621093750, 0.03692626953125000, -0.01231384277343750, -0.01329803466796875, -0.00728225708007812, 0.00513839721679688, -0.04260253906250000, -0.00705718994140625, 0.00318527221679688, 0.00549697875976562, -0.02496337890625000, 0.00085496902465820, -0.02883911132812500, 0.01318359375000000, 0.00819396972656250, 0.02056884765625000, -0.02595520019531250, -0.01765441894531250, 0.01102447509765625, -0.01879882812500000, -0.05563354492187500, -0.05108642578125000, -0.00265693664550781, -0.01638793945312500, 0.02557373046875000, -0.04910278320312500, 0.03509521484375000, -0.01096343994140625, -0.04315185546875000, -0.00699234008789062, 0.04373168945312500, -0.01728820800781250, -0.00059890747070312, -0.00727844238281250, -0.00688552856445312, 0.01477813720703125, -0.02679443359375000, -0.01118469238281250, 0.01464080810546875, -0.02619934082031250, -0.02447509765625000, 0.01596069335937500, 0.00545883178710938, 0.01068115234375000, -0.01710510253906250, 0.00091457366943359, -0.02767944335937500, -0.02024841308593750, 0.00897979736328125, -0.02844238281250000, 0.03936767578125000, -0.04431152343750000, -0.01736450195312500, -0.02166748046875000, -0.03771972656250000, -0.01548004150390625, 0.03515625000000000, 0.03027343750000000, 0.00439071655273438, 0.01936340332031250, 0.01786804199218750, -0.00340652465820312, 0.00639724731445312, 0.00256538391113281, 0.00518417358398438, -0.00893402099609375, 0.01853942871093750, -0.03115844726562500, -0.01265716552734375, -0.01378631591796875, -0.01977539062500000, 0.01901245117187500, 0.04235839843750000, 0.01298522949218750, 0.04656982421875000, -0.00686264038085938, -0.01702880859375000, 0.03588867187500000, -0.03491210937500000, -0.04061889648437500, -0.02020263671875000, -0.01269531250000000, -0.03451538085937500, -0.00684356689453125, 0.00263404846191406, -0.03421020507812500, 0.00614166259765625, -0.01875305175781250, -0.03195190429687500, 0.01559448242187500, -0.04437255859375000, 0.03686523437500000, -0.03692626953125000, 0.03041076660156250, -0.02441406250000000, 0.02703857421875000, 0.01615905761718750, -0.00379180908203125, 0.00221061706542969, 0.00782012939453125, -0.05249023437500000, -0.02165222167968750, -0.04333496093750000, -0.02624511718750000, -0.05529785156250000, -0.01434326171875000, 0.00225830078125000, -0.04150390625000000, 0.01428222656250000, -0.02050781250000000, 0.01211547851562500, 0.03671264648437500, -0.01022338867187500, -0.04873657226562500, -0.06585693359375000, -0.06579589843750000, -0.02879333496093750, -0.04675292968750000, -0.06286621093750000, -0.01896667480468750, -0.04870605468750000, -0.04013061523437500, -0.03622436523437500, -0.01905822753906250, -0.03546142578125000, -0.05041503906250000, -0.04501342773437500, -0.06591796875000000, -0.05538940429687500, -0.03720092773437500, -0.04962158203125000, -0.03083801269531250, -0.04180908203125000, 0.01428222656250000, -0.00653076171875000, 0.03942871093750000, 0.02813720703125000, -0.00262451171875000, 0.03289794921875000, -0.02758789062500000, 0.01916503906250000, -0.05017089843750000, 0.00038671493530273, -0.04055786132812500, -0.01532745361328125, -0.02671813964843750, -0.02368164062500000, -0.07098388671875000, -0.02088928222656250, -0.04595947265625000, -0.06463623046875000, -0.06286621093750000, -0.07623291015625000, -0.05865478515625000, -0.05694580078125000, -0.05334472656250000, -0.00494384765625000, -0.03430175781250000, -0.05416870117187500, -0.03659057617187500, 0.04785156250000000, -0.00869750976562500, -0.00958251953125000, 0.03826904296875000, 0.02752685546875000, -0.00421142578125000, 0.00604248046875000, -0.02148437500000000, -0.01043701171875000, -0.04861450195312500, -0.05090332031250000, -0.03573608398437500, -0.02015686035156250, -0.03096008300781250, -0.03778076171875000, 0.01466369628906250, -0.01383209228515625, 0.02899169921875000, -0.01091766357421875, 0.00125980377197266, 0.00514221191406250, -0.03695678710937500, -0.05084228515625000, 0.00195693969726562, 0.01710510253906250, -0.00635528564453125, -0.04364013671875000, -0.04187011718750000, 0.04150390625000000, -0.04647827148437500, 0.02935791015625000, 0.01190185546875000};
#endif

#endif
