//Numpy array shape [12, 40]
//Min -0.130859375000
//Max 0.122619628906
//Number of zeros 0

#ifndef W4_H_
#define W4_H_

#ifndef __SYNTHESIS__
dense_1_weight_t w4[480];
#else
dense_1_weight_t w4[480] = {-0.02580261230468750, -0.02095031738281250, -0.07659912109375000, -0.05276489257812500, 0.03710937500000000, -0.04217529296875000, 0.00383186340332031, -0.06286621093750000, -0.09790039062500000, -0.01103973388671875, -0.02598571777343750, 0.00226783752441406, 0.07598876953125000, -0.04992675781250000, -0.05517578125000000, -0.00403213500976562, -0.06158447265625000, -0.07153320312500000, 0.01631164550781250, 0.07336425781250000, -0.02445983886718750, 0.00664138793945312, -0.05926513671875000, -0.08892822265625000, 0.07598876953125000, -0.06420898437500000, 0.04064941406250000, -0.04766845703125000, 0.07830810546875000, 0.01036071777343750, -0.08111572265625000, 0.01032257080078125, -0.06335449218750000, -0.03329467773437500, -0.04592895507812500, -0.00153636932373047, -0.06250000000000000, -0.04379272460937500, 0.05047607421875000, -0.06823730468750000, 0.03295898437500000, 0.02200317382812500, -0.06137084960937500, -0.06262207031250000, -0.13085937500000000, 0.10125732421875000, -0.06280517578125000, 0.07885742187500000, -0.02571105957031250, -0.03878784179687500, -0.00210762023925781, -0.03942871093750000, -0.00307655334472656, -0.02505493164062500, -0.06219482421875000, 0.02569580078125000, 0.11505126953125000, 0.03262329101562500, 0.04281616210937500, 0.01473999023437500, -0.02709960937500000, -0.08697509765625000, -0.02824401855468750, 0.01200866699218750, 0.06512451171875000, -0.01096343994140625, -0.00235557556152344, -0.07727050781250000, 0.05865478515625000, 0.01091003417968750, -0.00788116455078125, 0.06756591796875000, 0.06616210937500000, -0.03356933593750000, -0.09722900390625000, 0.01352691650390625, -0.00010687112808228, 0.06185913085937500, 0.12261962890625000, -0.01367187500000000, 0.10852050781250000, -0.00716400146484375, -0.00252532958984375, -0.08410644531250000, 0.03799438476562500, -0.03726196289062500, 0.11383056640625000, 0.10046386718750000, 0.02801513671875000, -0.06317138671875000, 0.07806396484375000, 0.02722167968750000, 0.04904174804687500, 0.01174926757812500, -0.01469421386718750, -0.06701660156250000, 0.01734924316406250, -0.05981445312500000, 0.01211547851562500, 0.04202270507812500, 0.03152465820312500, 0.02130126953125000, -0.06274414062500000, -0.06304931640625000, -0.12194824218750000, -0.03903198242187500, -0.06506347656250000, 0.06280517578125000, -0.03485107421875000, 0.00859832763671875, 0.01849365234375000, -0.01895141601562500, 0.03994750976562500, 0.06274414062500000, 0.04748535156250000, -0.03125000000000000, -0.06268310546875000, 0.02935791015625000, 0.00003713369369507, -0.00080966949462891, -0.01832580566406250, 0.04229736328125000, 0.06286621093750000, 0.00089836120605469, -0.01679992675781250, 0.06256103515625000, -0.00445556640625000, 0.02204895019531250, -0.00373840332031250, 0.00111865997314453, 0.00693511962890625, 0.06341552734375000, -0.04385375976562500, -0.00334358215332031, -0.01632690429687500, -0.06243896484375000, 0.06250000000000000, 0.06433105468750000, 0.03677368164062500, -0.05761718750000000, 0.00553512573242188, -0.01171112060546875, 0.05981445312500000, 0.02272033691406250, 0.03884887695312500, 0.03143310546875000, 0.07226562500000000, 0.06951904296875000, -0.08685302734375000, -0.04556274414062500, -0.03665161132812500, 0.07293701171875000, 0.08001708984375000, 0.04962158203125000, 0.04028320312500000, -0.07019042968750000, 0.01304626464843750, -0.05615234375000000, -0.03268432617187500, 0.03085327148437500, 0.06185913085937500, -0.06280517578125000, 0.04977416992187500, -0.00436019897460938, -0.01427459716796875, 0.10998535156250000, -0.04510498046875000, -0.05804443359375000, -0.06994628906250000, 0.01447296142578125, -0.03485107421875000, -0.06402587890625000, -0.01332092285156250, 0.06250000000000000, 0.03378295898437500, -0.06463623046875000, -0.01085662841796875, -0.01412963867187500, 0.08453369140625000, -0.08367919921875000, 0.05102539062500000, 0.02304077148437500, -0.00036740303039551, -0.00246238708496094, -0.00022363662719727, 0.00034046173095703, 0.05938720703125000, 0.06616210937500000, -0.03271484375000000, 0.00296020507812500, 0.03167724609375000, -0.00643539428710938, 0.03353881835937500, 0.06341552734375000, -0.03717041015625000, -0.00090885162353516, 0.09295654296875000, 0.01502227783203125, 0.03430175781250000, 0.06250000000000000, 0.00000154972076416, 0.00032281875610352, 0.07031250000000000, -0.06274414062500000, -0.03231811523437500, -0.05023193359375000, -0.06317138671875000, 0.01084899902343750, -0.06634521484375000, -0.06445312500000000, 0.03271484375000000, -0.06329345703125000, 0.06182861328125000, 0.01027679443359375, -0.01324462890625000, 0.05136108398437500, 0.01268005371093750, -0.06323242187500000, -0.06860351562500000, -0.06274414062500000, 0.03991699218750000, -0.04620361328125000, 0.02478027343750000, 0.00809478759765625, 0.09124755859375000, -0.06323242187500000, 0.01766967773437500, 0.07934570312500000, -0.01919555664062500, -0.08343505859375000, -0.06219482421875000, -0.04974365234375000, 0.05798339843750000, -0.06066894531250000, 0.03890991210937500, -0.06469726562500000, 0.00027966499328613, 0.01832580566406250, 0.06793212890625000, -0.04776000976562500, 0.03628540039062500, -0.05532836914062500, 0.02616882324218750, -0.04571533203125000, 0.08483886718750000, 0.04791259765625000, 0.03277587890625000, 0.10974121093750000, -0.03533935546875000, -0.05563354492187500, -0.04864501953125000, 0.06701660156250000, -0.05175781250000000, -0.07751464843750000, 0.01368713378906250, 0.06280517578125000, -0.00760650634765625, -0.01194000244140625, -0.06027221679687500, 0.05624389648437500, 0.01707458496093750, -0.04583740234375000, 0.06011962890625000, -0.02844238281250000, 0.04617309570312500, -0.11059570312500000, -0.06280517578125000, 0.00985717773437500, 0.05374145507812500, -0.06088256835937500, 0.08044433593750000, -0.02026367187500000, 0.09741210937500000, 0.04122924804687500, -0.00184535980224609, -0.07470703125000000, -0.09039306640625000, -0.06402587890625000, 0.04278564453125000, 0.01637268066406250, 0.01966857910156250, 0.03924560546875000, -0.06329345703125000, -0.07482910156250000, 0.03286743164062500, 0.02891540527343750, -0.08197021484375000, 0.06243896484375000, 0.05596923828125000, -0.01201629638671875, 0.08154296875000000, -0.02177429199218750, -0.06359863281250000, -0.05593872070312500, -0.03057861328125000, 0.06210327148437500, -0.03735351562500000, 0.06866455078125000, 0.03015136718750000, -0.04705810546875000, -0.06915283203125000, -0.03881835937500000, -0.07012939453125000, 0.02465820312500000, -0.00727844238281250, -0.06439208984375000, 0.04397583007812500, 0.06198120117187500, 0.04687500000000000, 0.00567245483398438, -0.12261962890625000, -0.00581359863281250, -0.03750610351562500, 0.07458496093750000, -0.01384735107421875, -0.05212402343750000, -0.00872802734375000, 0.00605392456054688, 0.06198120117187500, -0.04031372070312500, -0.00159549713134766, 0.06274414062500000, 0.00593566894531250, -0.09838867187500000, -0.05389404296875000, -0.04095458984375000, 0.03317260742187500, -0.08270263671875000, 0.00867462158203125, 0.00630187988281250, -0.06365966796875000, 0.02482604980468750, 0.02458190917968750, -0.06677246093750000, 0.01320648193359375, 0.11163330078125000, -0.06262207031250000, -0.04403686523437500, 0.03738403320312500, -0.08489990234375000, 0.02018737792968750, 0.03683471679687500, -0.06433105468750000, 0.08215332031250000, 0.05224609375000000, -0.07006835937500000, 0.03073120117187500, -0.07727050781250000, -0.02093505859375000, 0.03692626953125000, 0.05517578125000000, 0.02674865722656250, 0.00092744827270508, 0.06365966796875000, -0.00256729125976562, -0.05187988281250000, 0.00008440017700195, 0.00031566619873047, -0.06646728515625000, 0.01112365722656250, 0.00665664672851562, -0.05224609375000000, -0.08746337890625000, 0.04620361328125000, 0.00956726074218750, -0.05923461914062500, -0.05700683593750000, -0.00056219100952148, 0.02888488769531250, 0.08935546875000000, -0.05654907226562500, -0.06329345703125000, 0.03729248046875000, 0.00327873229980469, 0.01062011718750000, 0.06628417968750000, -0.03973388671875000, -0.00368881225585938, 0.01554107666015625, 0.00061941146850586, -0.11724853515625000, -0.08001708984375000, -0.00070667266845703, -0.06335449218750000, -0.03881835937500000, 0.05441284179687500, 0.11370849609375000, -0.01014709472656250, 0.01342010498046875, 0.05664062500000000, -0.02168273925781250, 0.00375556945800781, -0.03204345703125000, 0.02030944824218750, 0.01429748535156250, 0.07714843750000000, -0.02136230468750000, 0.07891845703125000, -0.10272216796875000, 0.00241470336914062, 0.00015783309936523, -0.00740051269531250, -0.00800323486328125, -0.04208374023437500, -0.00091218948364258, -0.01131439208984375, -0.01377868652343750, 0.09552001953125000, 0.04660034179687500, -0.05117797851562500, -0.12524414062500000, 0.02549743652343750, -0.06268310546875000, -0.06390380859375000, 0.01161193847656250, 0.05136108398437500, -0.09149169921875000, 0.02488708496093750, -0.04064941406250000, -0.01628112792968750, 0.04684448242187500, -0.01797485351562500, -0.03619384765625000, -0.00711441040039062, -0.06274414062500000, -0.05108642578125000, -0.05505371093750000, 0.00882720947265625, 0.00512313842773438, -0.06549072265625000, 0.04467773437500000, 0.06256103515625000, -0.06317138671875000, -0.03753662109375000, 0.00260925292968750, -0.08880615234375000, 0.02795410156250000, 0.06292724609375000, -0.01988220214843750, -0.06848144531250000, -0.06234741210937500, 0.02665710449218750, 0.00397872924804688, -0.00110530853271484, -0.00448226928710938, 0.01904296875000000, 0.06100463867187500, -0.00013113021850586, -0.00875091552734375, -0.02200317382812500, -0.04272460937500000, 0.01029968261718750, 0.05630493164062500, -0.04010009765625000, 0.00189590454101562, -0.02345275878906250, -0.05148315429687500, 0.02542114257812500, -0.00169849395751953, 0.02674865722656250, -0.03042602539062500, 0.01681518554687500, 0.10003662109375000, 0.01974487304687500, -0.00210952758789062, 0.06890869140625000, 0.00376510620117188, -0.03567504882812500, 0.10156250000000000, 0.06604003906250000, 0.02445983886718750, 0.03695678710937500, -0.06353759765625000, -0.03527832031250000, -0.11376953125000000, -0.10937500000000000, -0.06665039062500000, -0.00241088867187500, -0.04470825195312500, -0.02764892578125000};
#endif

#endif
