//Numpy array shape [40, 10]
//Min -0.071044921875
//Max 0.062866210938
//Number of zeros 0

#ifndef W6_H_
#define W6_H_

#ifndef __SYNTHESIS__
dense_2_weight_t w6[400];
#else
dense_2_weight_t w6[400] = {-0.06250000000000000, 0.05877685546875000, -0.01375579833984375, -0.03005981445312500, -0.03320312500000000, -0.06246948242187500, 0.03094482421875000, 0.03530883789062500, -0.03573608398437500, -0.03598022460937500, -0.05868530273437500, -0.06250000000000000, 0.01748657226562500, -0.00088214874267578, -0.04705810546875000, 0.05343627929687500, 0.02662658691406250, -0.03408813476562500, -0.06246948242187500, -0.03366088867187500, 0.02854919433593750, 0.01097106933593750, 0.01948547363281250, -0.06185913085937500, 0.02713012695312500, 0.02139282226562500, -0.00817108154296875, -0.06842041015625000, -0.02946472167968750, -0.06439208984375000, 0.02069091796875000, 0.05108642578125000, -0.06250000000000000, -0.06161499023437500, 0.04006958007812500, 0.01655578613281250, -0.04919433593750000, -0.04864501953125000, 0.03649902343750000, 0.01318359375000000, 0.00427246093750000, -0.03131103515625000, 0.04992675781250000, 0.03637695312500000, -0.06231689453125000, 0.03515625000000000, -0.02334594726562500, 0.01105499267578125, 0.04867553710937500, 0.04428100585937500, 0.04370117187500000, 0.03115844726562500, -0.01867675781250000, -0.02001953125000000, 0.00986480712890625, -0.06262207031250000, -0.00860595703125000, -0.06414794921875000, -0.06396484375000000, -0.05374145507812500, 0.03402709960937500, -0.06234741210937500, -0.05407714843750000, 0.06268310546875000, -0.01683044433593750, -0.06228637695312500, -0.05502319335937500, 0.04452514648437500, 0.03240966796875000, 0.04113769531250000, -0.03579711914062500, -0.03262329101562500, 0.04629516601562500, -0.03222656250000000, -0.03108215332031250, -0.07104492187500000, 0.06207275390625000, 0.00594711303710938, -0.02221679687500000, -0.04882812500000000, -0.06250000000000000, -0.01913452148437500, -0.03625488281250000, 0.01187133789062500, 0.00807952880859375, -0.02046203613281250, -0.01770019531250000, 0.03878784179687500, -0.03948974609375000, 0.00727462768554688, 0.05490112304687500, -0.06250000000000000, 0.02593994140625000, -0.00547409057617188, -0.03038024902343750, 0.01708984375000000, 0.02032470703125000, -0.00630187988281250, -0.00043773651123047, -0.04837036132812500, -0.03077697753906250, 0.00267410278320312, -0.02182006835937500, 0.04049682617187500, 0.02033996582031250, -0.05389404296875000, 0.02973937988281250, -0.01097106933593750, -0.03038024902343750, 0.03225708007812500, 0.01303863525390625, 0.03720092773437500, 0.04095458984375000, 0.04803466796875000, -0.03100585937500000, -0.03034973144531250, -0.02838134765625000, 0.05969238281250000, 0.03384399414062500, 0.02906799316406250, -0.01053619384765625, -0.03948974609375000, -0.05810546875000000, -0.02919006347656250, -0.02413940429687500, -0.05593872070312500, 0.03302001953125000, -0.00232315063476562, -0.06204223632812500, 0.04919433593750000, 0.05111694335937500, 0.04653930664062500, 0.00143337249755859, -0.01947021484375000, 0.05654907226562500, 0.04434204101562500, 0.03634643554687500, -0.00958251953125000, -0.05099487304687500, 0.01094818115234375, -0.00068378448486328, -0.00552749633789062, -0.00186634063720703, -0.03222656250000000, -0.02114868164062500, -0.05590820312500000, 0.03497314453125000, -0.05737304687500000, -0.01500701904296875, 0.02189636230468750, -0.03146362304687500, -0.00676345825195312, 0.03768920898437500, 0.04196166992187500, -0.03048706054687500, -0.03909301757812500, 0.06286621093750000, -0.04495239257812500, 0.03793334960937500, -0.01734924316406250, 0.03363037109375000, -0.03125000000000000, -0.04101562500000000, -0.01338195800781250, 0.02781677246093750, 0.05313110351562500, 0.02909851074218750, -0.01660156250000000, 0.04602050781250000, -0.06213378906250000, 0.02746582031250000, 0.03030395507812500, 0.00024032592773438, -0.06082153320312500, -0.05981445312500000, -0.06250000000000000, -0.05880737304687500, 0.06256103515625000, 0.03482055664062500, -0.05725097656250000, 0.01832580566406250, -0.01637268066406250, 0.01240539550781250, 0.03488159179687500, -0.06250000000000000, 0.00349617004394531, -0.06057739257812500, 0.06274414062500000, -0.00565719604492188, -0.05078125000000000, 0.00646591186523438, -0.00938415527343750, 0.00208282470703125, 0.05694580078125000, -0.03121948242187500, 0.06204223632812500, -0.04821777343750000, 0.01846313476562500, -0.05432128906250000, 0.05035400390625000, 0.04669189453125000, 0.01716613769531250, 0.05697631835937500, -0.02020263671875000, -0.04528808593750000, 0.01928710937500000, 0.03259277343750000, 0.02888488769531250, 0.02172851562500000, 0.02870178222656250, -0.04504394531250000, 0.01695251464843750, -0.01950073242187500, 0.00323867797851562, 0.00888061523437500, 0.04327392578125000, 0.02311706542968750, 0.04653930664062500, 0.01812744140625000, 0.02709960937500000, 0.03811645507812500, -0.03045654296875000, 0.02137756347656250, -0.05920410156250000, -0.01925659179687500, 0.00978088378906250, 0.03041076660156250, -0.05578613281250000, -0.04812622070312500, -0.02976989746093750, -0.00230026245117188, -0.01617431640625000, -0.03588867187500000, -0.03613281250000000, -0.01386260986328125, -0.02247619628906250, -0.04177856445312500, -0.03811645507812500, 0.03591918945312500, -0.00349235534667969, -0.01151275634765625, -0.03004455566406250, -0.03125000000000000, -0.00429534912109375, 0.02516174316406250, 0.05462646484375000, 0.03051757812500000, 0.03656005859375000, 0.02671813964843750, -0.05117797851562500, -0.06250000000000000, -0.07006835937500000, 0.01800537109375000, 0.00891876220703125, -0.06451416015625000, -0.06134033203125000, -0.06250000000000000, 0.06018066406250000, -0.00362014770507812, -0.03189086914062500, -0.03125000000000000, 0.02272033691406250, 0.02684020996093750, 0.05239868164062500, -0.01908874511718750, 0.02935791015625000, 0.00159549713134766, -0.03344726562500000, -0.04812622070312500, -0.00590133666992188, 0.03408813476562500, 0.03607177734375000, -0.03625488281250000, -0.06228637695312500, -0.00865173339843750, -0.06396484375000000, -0.00018203258514404, -0.01103210449218750, 0.02763366699218750, 0.00316238403320312, -0.04754638671875000, 0.04385375976562500, -0.00480270385742188, -0.03088378906250000, 0.02230834960937500, -0.06671142578125000, -0.04238891601562500, -0.02490234375000000, -0.03106689453125000, -0.03701782226562500, 0.05636596679687500, 0.02377319335937500, 0.02041625976562500, -0.06250000000000000, 0.03677368164062500, 0.03109741210937500, 0.02714538574218750, -0.03112792968750000, 0.00228309631347656, 0.01701354980468750, 0.03793334960937500, 0.03536987304687500, -0.06250000000000000, -0.03134155273437500, 0.02659606933593750, 0.03173828125000000, -0.01589965820312500, 0.06170654296875000, 0.03750610351562500, -0.02676391601562500, -0.06268310546875000, -0.06384277343750000, 0.04144287109375000, -0.03102111816406250, -0.02262878417968750, 0.05435180664062500, -0.03256225585937500, 0.03007507324218750, -0.02113342285156250, -0.02909851074218750, 0.06243896484375000, -0.00772857666015625, 0.04574584960937500, 0.01828002929687500, 0.00891876220703125, 0.03182983398437500, -0.03131103515625000, -0.04824829101562500, -0.00548553466796875, 0.02925109863281250, -0.03295898437500000, 0.02258300781250000, 0.00183677673339844, 0.00588226318359375, -0.01323699951171875, -0.01899719238281250, 0.02426147460937500, -0.03521728515625000, -0.03031921386718750, 0.04083251953125000, 0.01496887207031250, -0.04119873046875000, 0.01264190673828125, 0.01574707031250000, 0.00883483886718750, -0.06219482421875000, 0.03210449218750000, -0.00762176513671875, -0.03025817871093750, -0.03244018554687500, 0.02359008789062500, -0.00269889831542969, 0.02145385742187500, -0.03536987304687500, -0.01214599609375000, -0.04391479492187500, 0.06256103515625000, -0.03189086914062500, 0.01976013183593750, -0.02839660644531250, 0.06167602539062500, 0.06250000000000000, -0.03759765625000000, -0.04733276367187500, 0.02647399902343750, 0.03836059570312500, 0.03421020507812500, -0.04443359375000000, -0.03231811523437500, -0.02868652343750000, -0.06222534179687500, 0.05117797851562500, -0.00218009948730469, -0.05273437500000000, 0.04055786132812500, -0.01534271240234375, 0.02760314941406250, 0.03329467773437500, 0.03619384765625000, 0.04177856445312500, -0.03353881835937500, 0.03320312500000000, 0.01870727539062500, -0.03518676757812500, -0.03619384765625000, -0.03326416015625000, -0.04565429687500000, 0.06250000000000000, 0.03454589843750000, -0.06240844726562500, -0.03161621093750000, -0.01600646972656250, -0.05752563476562500, -0.06237792968750000, -0.01594543457031250, 0.02857971191406250, 0.01291656494140625, 0.03704833984375000, -0.03372192382812500, -0.02558898925781250};
#endif

#endif
